{
  "version": "1.0",
  "truncation": null,
  "padding": null,
  "added_tokens": [
    {
      "id": 0,
      "content": "<PAD>",
      "single_word": false,
      "lstrip": false,
      "rstrip": false,
      "normalized": false,
      "special": true
    },
    {
      "id": 1,
      "content": "<UNK>",
      "single_word": false,
      "lstrip": false,
      "rstrip": false,
      "normalized": false,
      "special": true
    },
    {
      "id": 2,
      "content": "<BOS>",
      "single_word": false,
      "lstrip": false,
      "rstrip": false,
      "normalized": false,
      "special": true
    },
    {
      "id": 3,
      "content": "<EOS>",
      "single_word": false,
      "lstrip": false,
      "rstrip": false,
      "normalized": false,
      "special": true
    },
    {
      "id": 4,
      "content": "<NPC>",
      "single_word": false,
      "lstrip": false,
      "rstrip": false,
      "normalized": false,
      "special": true
    },
    {
      "id": 5,
      "content": "<PLAYER>",
      "single_word": false,
      "lstrip": false,
      "rstrip": false,
      "normalized": false,
      "special": true
    },
    {
      "id": 6,
      "content": "<STATE>",
      "single_word": false,
      "lstrip": false,
      "rstrip": false,
      "normalized": false,
      "special": true
    },
    {
      "id": 7,
      "content": "<MEMORY>",
      "single_word": false,
      "lstrip": false,
      "rstrip": false,
      "normalized": false,
      "special": true
    },
    {
      "id": 8,
      "content": "<NOW>",
      "single_word": false,
      "lstrip": false,
      "rstrip": false,
      "normalized": false,
      "special": true
    },
    {
      "id": 9,
      "content": "<ACTION>",
      "single_word": false,
      "lstrip": false,
      "rstrip": false,
      "normalized": false,
      "special": true
    },
    {
      "id": 10,
      "content": "<TONE>",
      "single_word": false,
      "lstrip": false,
      "rstrip": false,
      "normalized": false,
      "special": true
    },
    {
      "id": 11,
      "content": "<SAY>",
      "single_word": false,
      "lstrip": false,
      "rstrip": false,
      "normalized": false,
      "special": true
    },
    {
      "id": 12,
      "content": "<REL>",
      "single_word": false,
      "lstrip": false,
      "rstrip": false,
      "normalized": false,
      "special": true
    },
    {
      "id": 13,
      "content": "<MOOD>",
      "single_word": false,
      "lstrip": false,
      "rstrip": false,
      "normalized": false,
      "special": true
    },
    {
      "id": 14,
      "content": "<WORLD>",
      "single_word": false,
      "lstrip": false,
      "rstrip": false,
      "normalized": false,
      "special": true
    },
    {
      "id": 15,
      "content": "<FACT>",
      "single_word": false,
      "lstrip": false,
      "rstrip": false,
      "normalized": false,
      "special": true
    },
    {
      "id": 16,
      "content": "<ITEM>",
      "single_word": false,
      "lstrip": false,
      "rstrip": false,
      "normalized": false,
      "special": true
    },
    {
      "id": 17,
      "content": "<GOLD>",
      "single_word": false,
      "lstrip": false,
      "rstrip": false,
      "normalized": false,
      "special": true
    },
    {
      "id": 18,
      "content": "<QUEST>",
      "single_word": false,
      "lstrip": false,
      "rstrip": false,
      "normalized": false,
      "special": true
    },
    {
      "id": 19,
      "content": "<TARGET>",
      "single_word": false,
      "lstrip": false,
      "rstrip": false,
      "normalized": false,
      "special": true
    },
    {
      "id": 20,
      "content": "<LOCATION>",
      "single_word": false,
      "lstrip": false,
      "rstrip": false,
      "normalized": false,
      "special": true
    },
    {
      "id": 21,
      "content": "<FACTION>",
      "single_word": false,
      "lstrip": false,
      "rstrip": false,
      "normalized": false,
      "special": true
    },
    {
      "id": 22,
      "content": "<CRIME>",
      "single_word": false,
      "lstrip": false,
      "rstrip": false,
      "normalized": false,
      "special": true
    },
    {
      "id": 23,
      "content": "<FAME>",
      "single_word": false,
      "lstrip": false,
      "rstrip": false,
      "normalized": false,
      "special": true
    },
    {
      "id": 24,
      "content": "<KARMA>",
      "single_word": false,
      "lstrip": false,
      "rstrip": false,
      "normalized": false,
      "special": true
    },
    {
      "id": 25,
      "content": "<HEALTH>",
      "single_word": false,
      "lstrip": false,
      "rstrip": false,
      "normalized": false,
      "special": true
    },
    {
      "id": 26,
      "content": "<END_STATE>",
      "single_word": false,
      "lstrip": false,
      "rstrip": false,
      "normalized": false,
      "special": true
    },
    {
      "id": 27,
      "content": "<R00>",
      "single_word": false,
      "lstrip": false,
      "rstrip": false,
      "normalized": false,
      "special": true
    },
    {
      "id": 28,
      "content": "<R01>",
      "single_word": false,
      "lstrip": false,
      "rstrip": false,
      "normalized": false,
      "special": true
    },
    {
      "id": 29,
      "content": "<R02>",
      "single_word": false,
      "lstrip": false,
      "rstrip": false,
      "normalized": false,
      "special": true
    },
    {
      "id": 30,
      "content": "<R03>",
      "single_word": false,
      "lstrip": false,
      "rstrip": false,
      "normalized": false,
      "special": true
    },
    {
      "id": 31,
      "content": "<R04>",
      "single_word": false,
      "lstrip": false,
      "rstrip": false,
      "normalized": false,
      "special": true
    },
    {
      "id": 32,
      "content": "<R05>",
      "single_word": false,
      "lstrip": false,
      "rstrip": false,
      "normalized": false,
      "special": true
    },
    {
      "id": 33,
      "content": "<R06>",
      "single_word": false,
      "lstrip": false,
      "rstrip": false,
      "normalized": false,
      "special": true
    },
    {
      "id": 34,
      "content": "<R07>",
      "single_word": false,
      "lstrip": false,
      "rstrip": false,
      "normalized": false,
      "special": true
    },
    {
      "id": 35,
      "content": "<R08>",
      "single_word": false,
      "lstrip": false,
      "rstrip": false,
      "normalized": false,
      "special": true
    },
    {
      "id": 36,
      "content": "<R09>",
      "single_word": false,
      "lstrip": false,
      "rstrip": false,
      "normalized": false,
      "special": true
    },
    {
      "id": 37,
      "content": "<R10>",
      "single_word": false,
      "lstrip": false,
      "rstrip": false,
      "normalized": false,
      "special": true
    },
    {
      "id": 38,
      "content": "<R11>",
      "single_word": false,
      "lstrip": false,
      "rstrip": false,
      "normalized": false,
      "special": true
    },
    {
      "id": 39,
      "content": "<R12>",
      "single_word": false,
      "lstrip": false,
      "rstrip": false,
      "normalized": false,
      "special": true
    },
    {
      "id": 40,
      "content": "<R13>",
      "single_word": false,
      "lstrip": false,
      "rstrip": false,
      "normalized": false,
      "special": true
    },
    {
      "id": 41,
      "content": "<R14>",
      "single_word": false,
      "lstrip": false,
      "rstrip": false,
      "normalized": false,
      "special": true
    },
    {
      "id": 42,
      "content": "<R15>",
      "single_word": false,
      "lstrip": false,
      "rstrip": false,
      "normalized": false,
      "special": true
    },
    {
      "id": 43,
      "content": "<R16>",
      "single_word": false,
      "lstrip": false,
      "rstrip": false,
      "normalized": false,
      "special": true
    },
    {
      "id": 44,
      "content": "<R17>",
      "single_word": false,
      "lstrip": false,
      "rstrip": false,
      "normalized": false,
      "special": true
    },
    {
      "id": 45,
      "content": "<R18>",
      "single_word": false,
      "lstrip": false,
      "rstrip": false,
      "normalized": false,
      "special": true
    },
    {
      "id": 46,
      "content": "<R19>",
      "single_word": false,
      "lstrip": false,
      "rstrip": false,
      "normalized": false,
      "special": true
    },
    {
      "id": 47,
      "content": "<R20>",
      "single_word": false,
      "lstrip": false,
      "rstrip": false,
      "normalized": false,
      "special": true
    },
    {
      "id": 48,
      "content": "<R21>",
      "single_word": false,
      "lstrip": false,
      "rstrip": false,
      "normalized": false,
      "special": true
    },
    {
      "id": 49,
      "content": "<R22>",
      "single_word": false,
      "lstrip": false,
      "rstrip": false,
      "normalized": false,
      "special": true
    },
    {
      "id": 50,
      "content": "<R23>",
      "single_word": false,
      "lstrip": false,
      "rstrip": false,
      "normalized": false,
      "special": true
    },
    {
      "id": 51,
      "content": "<R24>",
      "single_word": false,
      "lstrip": false,
      "rstrip": false,
      "normalized": false,
      "special": true
    },
    {
      "id": 52,
      "content": "<R25>",
      "single_word": false,
      "lstrip": false,
      "rstrip": false,
      "normalized": false,
      "special": true
    },
    {
      "id": 53,
      "content": "<R26>",
      "single_word": false,
      "lstrip": false,
      "rstrip": false,
      "normalized": false,
      "special": true
    },
    {
      "id": 54,
      "content": "<R27>",
      "single_word": false,
      "lstrip": false,
      "rstrip": false,
      "normalized": false,
      "special": true
    },
    {
      "id": 55,
      "content": "<R28>",
      "single_word": false,
      "lstrip": false,
      "rstrip": false,
      "normalized": false,
      "special": true
    },
    {
      "id": 56,
      "content": "<R29>",
      "single_word": false,
      "lstrip": false,
      "rstrip": false,
      "normalized": false,
      "special": true
    },
    {
      "id": 57,
      "content": "<R30>",
      "single_word": false,
      "lstrip": false,
      "rstrip": false,
      "normalized": false,
      "special": true
    },
    {
      "id": 58,
      "content": "<R31>",
      "single_word": false,
      "lstrip": false,
      "rstrip": false,
      "normalized": false,
      "special": true
    }
  ],
  "normalizer": null,
  "pre_tokenizer": {
    "type": "ByteLevel",
    "add_prefix_space": false,
    "trim_offsets": true,
    "use_regex": true
  },
  "post_processor": null,
  "decoder": {
    "type": "ByteLevel",
    "add_prefix_space": true,
    "trim_offsets": true,
    "use_regex": true
  },
  "model": {
    "type": "BPE",
    "dropout": null,
    "unk_token": "<UNK>",
    "continuing_subword_prefix": null,
    "end_of_word_suffix": null,
    "fuse_unk": false,
    "byte_fallback": false,
    "ignore_merges": false,
    "vocab": {
      "<PAD>": 0,
      "<UNK>": 1,
      "<BOS>": 2,
      "<EOS>": 3,
      "<NPC>": 4,
      "<PLAYER>": 5,
      "<STATE>": 6,
      "<MEMORY>": 7,
      "<NOW>": 8,
      "<ACTION>": 9,
      "<TONE>": 10,
      "<SAY>": 11,
      "<REL>": 12,
      "<MOOD>": 13,
      "<WORLD>": 14,
      "<FACT>": 15,
      "<ITEM>": 16,
      "<GOLD>": 17,
      "<QUEST>": 18,
      "<TARGET>": 19,
      "<LOCATION>": 20,
      "<FACTION>": 21,
      "<CRIME>": 22,
      "<FAME>": 23,
      "<KARMA>": 24,
      "<HEALTH>": 25,
      "<END_STATE>": 26,
      "<R00>": 27,
      "<R01>": 28,
      "<R02>": 29,
      "<R03>": 30,
      "<R04>": 31,
      "<R05>": 32,
      "<R06>": 33,
      "<R07>": 34,
      "<R08>": 35,
      "<R09>": 36,
      "<R10>": 37,
      "<R11>": 38,
      "<R12>": 39,
      "<R13>": 40,
      "<R14>": 41,
      "<R15>": 42,
      "<R16>": 43,
      "<R17>": 44,
      "<R18>": 45,
      "<R19>": 46,
      "<R20>": 47,
      "<R21>": 48,
      "<R22>": 49,
      "<R23>": 50,
      "<R24>": 51,
      "<R25>": 52,
      "<R26>": 53,
      "<R27>": 54,
      "<R28>": 55,
      "<R29>": 56,
      "<R30>": 57,
      "<R31>": 58,
      "!": 59,
      "\"": 60,
      "#": 61,
      "$": 62,
      "%": 63,
      "&": 64,
      "'": 65,
      "(": 66,
      ")": 67,
      "*": 68,
      "+": 69,
      ",": 70,
      "-": 71,
      ".": 72,
      "/": 73,
      "0": 74,
      "1": 75,
      "2": 76,
      "3": 77,
      "4": 78,
      "5": 79,
      "6": 80,
      "7": 81,
      "8": 82,
      "9": 83,
      ":": 84,
      ";": 85,
      "<": 86,
      "=": 87,
      ">": 88,
      "?": 89,
      "@": 90,
      "A": 91,
      "B": 92,
      "C": 93,
      "D": 94,
      "E": 95,
      "F": 96,
      "G": 97,
      "H": 98,
      "I": 99,
      "J": 100,
      "K": 101,
      "L": 102,
      "M": 103,
      "N": 104,
      "O": 105,
      "P": 106,
      "Q": 107,
      "R": 108,
      "S": 109,
      "T": 110,
      "U": 111,
      "V": 112,
      "W": 113,
      "X": 114,
      "Y": 115,
      "Z": 116,
      "[": 117,
      "\\": 118,
      "]": 119,
      "^": 120,
      "_": 121,
      "`": 122,
      "a": 123,
      "b": 124,
      "c": 125,
      "d": 126,
      "e": 127,
      "f": 128,
      "g": 129,
      "h": 130,
      "i": 131,
      "j": 132,
      "k": 133,
      "l": 134,
      "m": 135,
      "n": 136,
      "o": 137,
      "p": 138,
      "q": 139,
      "r": 140,
      "s": 141,
      "t": 142,
      "u": 143,
      "v": 144,
      "w": 145,
      "x": 146,
      "y": 147,
      "z": 148,
      "{": 149,
      "|": 150,
      "}": 151,
      "~": 152,
      "¡": 153,
      "¢": 154,
      "£": 155,
      "¤": 156,
      "¥": 157,
      "¦": 158,
      "§": 159,
      "¨": 160,
      "©": 161,
      "ª": 162,
      "«": 163,
      "¬": 164,
      "®": 165,
      "¯": 166,
      "°": 167,
      "±": 168,
      "²": 169,
      "³": 170,
      "´": 171,
      "µ": 172,
      "¶": 173,
      "·": 174,
      "¸": 175,
      "¹": 176,
      "º": 177,
      "»": 178,
      "¼": 179,
      "½": 180,
      "¾": 181,
      "¿": 182,
      "À": 183,
      "Á": 184,
      "Â": 185,
      "Ã": 186,
      "Ä": 187,
      "Å": 188,
      "Æ": 189,
      "Ç": 190,
      "È": 191,
      "É": 192,
      "Ê": 193,
      "Ë": 194,
      "Ì": 195,
      "Í": 196,
      "Î": 197,
      "Ï": 198,
      "Ð": 199,
      "Ñ": 200,
      "Ò": 201,
      "Ó": 202,
      "Ô": 203,
      "Õ": 204,
      "Ö": 205,
      "×": 206,
      "Ø": 207,
      "Ù": 208,
      "Ú": 209,
      "Û": 210,
      "Ü": 211,
      "Ý": 212,
      "Þ": 213,
      "ß": 214,
      "à": 215,
      "á": 216,
      "â": 217,
      "ã": 218,
      "ä": 219,
      "å": 220,
      "æ": 221,
      "ç": 222,
      "è": 223,
      "é": 224,
      "ê": 225,
      "ë": 226,
      "ì": 227,
      "í": 228,
      "î": 229,
      "ï": 230,
      "ð": 231,
      "ñ": 232,
      "ò": 233,
      "ó": 234,
      "ô": 235,
      "õ": 236,
      "ö": 237,
      "÷": 238,
      "ø": 239,
      "ù": 240,
      "ú": 241,
      "û": 242,
      "ü": 243,
      "ý": 244,
      "þ": 245,
      "ÿ": 246,
      "Ā": 247,
      "ā": 248,
      "Ă": 249,
      "ă": 250,
      "Ą": 251,
      "ą": 252,
      "Ć": 253,
      "ć": 254,
      "Ĉ": 255,
      "ĉ": 256,
      "Ċ": 257,
      "ċ": 258,
      "Č": 259,
      "č": 260,
      "Ď": 261,
      "ď": 262,
      "Đ": 263,
      "đ": 264,
      "Ē": 265,
      "ē": 266,
      "Ĕ": 267,
      "ĕ": 268,
      "Ė": 269,
      "ė": 270,
      "Ę": 271,
      "ę": 272,
      "Ě": 273,
      "ě": 274,
      "Ĝ": 275,
      "ĝ": 276,
      "Ğ": 277,
      "ğ": 278,
      "Ġ": 279,
      "ġ": 280,
      "Ģ": 281,
      "ģ": 282,
      "Ĥ": 283,
      "ĥ": 284,
      "Ħ": 285,
      "ħ": 286,
      "Ĩ": 287,
      "ĩ": 288,
      "Ī": 289,
      "ī": 290,
      "Ĭ": 291,
      "ĭ": 292,
      "Į": 293,
      "į": 294,
      "İ": 295,
      "ı": 296,
      "Ĳ": 297,
      "ĳ": 298,
      "Ĵ": 299,
      "ĵ": 300,
      "Ķ": 301,
      "ķ": 302,
      "ĸ": 303,
      "Ĺ": 304,
      "ĺ": 305,
      "Ļ": 306,
      "ļ": 307,
      "Ľ": 308,
      "ľ": 309,
      "Ŀ": 310,
      "ŀ": 311,
      "Ł": 312,
      "ł": 313,
      "Ń": 314,
      "he": 315,
      "Ġt": 316,
      "Ġa": 317,
      "Ġs": 318,
      "Ġw": 319,
      "nd": 320,
      "Ġthe": 321,
      "ed": 322,
      "Ġand": 323,
      "Ġto": 324,
      "Ġb": 325,
      "in": 326,
      "Ġh": 327,
      "re": 328,
      "Ġwa": 329,
      "ou": 330,
      "Ġf": 331,
      "it": 332,
      "Ġc": 333,
      "Ġl": 334,
      "Ġd": 335,
      "er": 336,
      "Ġhe": 337,
      "Ġm": 338,
      "Ġp": 339,
      "Ġwas": 340,
      "ĠT": 341,
      "om": 342,
      "Ġo": 343,
      "ay": 344,
      "ar": 345,
      "is": 346,
      "ing": 347,
      "il": 348,
      "Ġg": 349,
      "id": 350,
      "at": 351,
      "en": 352,
      "Ġn": 353,
      "Ġsa": 354,
      "ĠThe": 355,
      "Ġha": 356,
      "ĠS": 357,
      "an": 358,
      "im": 359,
      "or": 360,
      "on": 361,
      "Ġit": 362,
      "Ġth": 363,
      "ll": 364,
      "le": 365,
      "ĠH": 366,
      "ot": 367,
      "Ġher": 368,
      "et": 369,
      "ir": 370,
      "ĠShe": 371,
      "es": 372,
      "ĠHe": 373,
      "Ġin": 374,
      "ĠThey": 375,
      "ver": 376,
      "ut": 377,
      "ow": 378,
      "ck": 379,
      "Ġy": 380,
      "Ġe": 381,
      "Ġu": 382,
      "ld": 383,
      "oo": 384,
      "Ġsaid": 385,
      "ily": 386,
      "ig": 387,
      "Ġ\"": 388,
      "Ġr": 389,
      "Ġbe": 390,
      "ĠI": 391,
      "am": 392,
      "Ġst": 393,
      "ke": 394,
      "ce": 395,
      "ve": 396,
      "ith": 397,
      "Lily": 398,
      "pp": 399,
      "Ġshe": 400,
      "Ġwith": 401,
      "Ġyou": 402,
      "Ġon": 403,
      "On": 404,
      "ked": 405,
      "ri": 406,
      "Ġof": 407,
      "Ġpl": 408,
      "nt": 409,
      "ad": 410,
      "Ġhis": 411,
      "Ġso": 412,
      "very": 413,
      "Ġday": 414,
      "Ġthat": 415,
      "ĠLily": 416,
      "Ġplay": 417,
      "Ġup": 418,
      "Ġthey": 419,
      "Ġhad": 420,
      "Ġwe": 421,
      "st": 422,
      "Ġmom": 423,
      "ĠB": 424,
      "Ġfor": 425,
      "el": 426,
      "un": 427,
      "'s": 428,
      "ould": 429,
      "Ġli": 430,
      "my": 431,
      "The": 432,
      "ch": 433,
      "Ġwant": 434,
      "Ġhapp": 435,
      "ent": 436,
      "Ġsh": 437,
      "itt": 438,
      "her": 439,
      "out": 440,
      "Ġnot": 441,
      "Ġdo": 442,
      "ome": 443,
      "se": 444,
      "Ġvery": 445,
      "end": 446,
      "ly": 447,
      "all": 448,
      "Ġwh": 449,
      "ound": 450,
      "Ġk": 451,
      "ime": 452,
      "ittle": 453,
      "ĠM": 454,
      "Ġis": 455,
      "Ġtime": 456,
      "al": 457,
      "Ġne": 458,
      "Ġlittle": 459,
      "ht": 460,
      "Ġthere": 461,
      "Ġbig": 462,
      "Ġhappy": 463,
      "ĠIt": 464,
      "Ġre": 465,
      "Ġsm": 466,
      "Ġbut": 467,
      ".\"": 468,
      "ry": 469,
      "Ġsaw": 470,
      "Ġan": 471,
      "ra": 472,
      "riend": 473,
      "Ġfriend": 474,
      "ĠĊ": 475,
      "Ġas": 476,
      "ack": 477,
      "ake": 478,
      "ide": 479,
      "One": 480,
      "!\"": 481,
      "'t": 482,
      "ug": 483,
      "Ġloo": 484,
      "Ġwere": 485,
      "ter": 486,
      "ved": 487,
      "Ġlo": 488,
      "ore": 489,
      "Once": 490,
      "Ġse": 491,
      "Ġtoo": 492,
      "Ġare": 493,
      "Ġhim": 494,
      "Ġbo": 495,
      "Ġgo": 496,
      "ec": 497,
      "ĠTim": 498,
      "Ġj": 499,
      "ill": 500,
      "ard": 501,
      "Ġwanted": 502,
      "Ġthem": 503,
      "irl": 504,
      "Ġtheir": 505,
      "Ġupon": 506,
      "Ġat": 507,
      "Ġgirl": 508,
      "Ġout": 509,
      "Ġdid": 510,
      "ur": 511,
      "ind": 512,
      "ays": 513,
      "ĠA": 514,
      "fu": 515,
      "Ġsp": 516,
      "Ġhave": 517,
      "Ġsmil": 518,
      "Ġcould": 519,
      "hen": 520,
      "ain": 521,
      "ĠBen": 522,
      "hed": 523,
      "art": 524,
      "Ġcan": 525,
      "rom": 526,
      "Ġwent": 527,
      "Ġex": 528,
      "ic": 529,
      "Ġar": 530,
      "?\"": 531,
      "lp": 532,
      "ood": 533,
      "Ġfriends": 534,
      "ful": 535,
      "Ġnam": 536,
      "Ġkn": 537,
      "hing": 538,
      "ĠJ": 539,
      "ight": 540,
      "Ġhelp": 541,
      "Ġall": 542,
      "You": 543,
      "um": 544,
      "ark": 545,
      "one": 546,
      "Ġback": 547,
      "ĠTom": 548,
      "Ġfun": 549,
      "Ġcl": 550,
      "Ġno": 551,
      "are": 552,
      "Ġle": 553,
      "op": 554,
      "Ġsc": 555,
      "Ġnamed": 556,
      "Ġal": 557,
      "elt": 558,
      "Ġman": 559,
      "Ġtoy": 560,
      "Ġloved": 561,
      "Ġsmiled": 562,
      "oug": 563,
      "Ġlike": 564,
      "ĠOne": 565,
      "side": 566,
      "ick": 567,
      "Ġfelt": 568,
      "Ġasked": 569,
      "Ġsee": 570,
      "Ġme": 571,
      "Ġfe": 572,
      "Ġlooked": 573,
      "Ġsome": 574,
      "ame": 575,
      "ĠW": 576,
      "Ġro": 577,
      "ĠTimmy": 578,
      "Ġaround": 579,
      "omet": 580,
      "Ġbr": 581,
      "ure": 582,
      "Ġbir": 583,
      "ice": 584,
      "get": 585,
      "Ġwould": 586,
      "Ġboy": 587,
      "ong": 588,
      "Ġstart": 589,
      "as": 590,
      "Ġbird": 591,
      "way": 592,
      "Ġsomet": 593,
      ",\"": 594,
      "Ġfa": 595,
      "ĠYou": 596,
      "Ġmake": 597,
      "Ġsays": 598,
      "ings": 599,
      "Ġag": 600,
      "ade": 601,
      "Ġwhat": 602,
      "dd": 603,
      "Ġwor": 604,
      "ĠBut": 605,
      "king": 606,
      "Ġran": 607,
      "own": 608,
      "Ġaway": 609,
      "gether": 610,
      "Ã¢": 611,
      "âĤ": 612,
      "âĤ¬": 613,
      "Ġtre": 614,
      "ared": 615,
      "ie": 616,
      "ag": 617,
      "oud": 618,
      "Ġcar": 619,
      "Ġmade": 620,
      "Ġstarted": 621,
      "if": 622,
      "Ġtogether": 623,
      "ther": 624,
      "Ġpark": 625,
      "Ġco": 626,
      "Ġsomething": 627,
      "Ġsad": 628,
      "Ġother": 629,
      "ited": 630,
      "Ġput": 631,
      "Ġnew": 632,
      "Ġfrom": 633,
      "ook": 634,
      "ell": 635,
      "Ġhug": 636,
      "ĠL": 637,
      "ach": 638,
      "Ġagain": 639,
      "ble": 640,
      "Ġpr": 641,
      "Ġgood": 642,
      "Ġexc": 643,
      "Ġla": 644,
      "Ġmu": 645,
      "Ġhome": 646,
      "ss": 647,
      "Ġfl": 648,
      "ried": 649,
      "ep": 650,
      "Ġwhen": 651,
      "Ġwho": 652,
      "Ġch": 653,
      "est": 654,
      "Ġthen": 655,
      "Ġfound": 656,
      "hat": 657,
      "Ġdec": 658,
      "pped": 659,
      "nn": 660,
      "Ġget": 661,
      "Ġplaying": 662,
      "Ġwal": 663,
      "qu": 664,
      "Ġsw": 665,
      "ought": 666,
      "Ġliked": 667,
      "uck": 668,
      "Ġthings": 669,
      "pl": 670,
      "ally": 671,
      "ĠE": 672,
      "ous": 673,
      "Ġgot": 674,
      "Ġbl": 675,
      "ro": 676,
      "ara": 677,
      "Ġyour": 678,
      "ĠMom": 679,
      "Ġexcited": 680,
      "Ġdog": 681,
      "ave": 682,
      "Ġcame": 683,
      "Ġdecid": 684,
      "Ġevery": 685,
      "ax": 686,
      "Ġdecided": 687,
      "nna": 688,
      "ĠD": 689,
      "Ġscared": 690,
      "They": 691,
      "Ġv": 692,
      "Ġdown": 693,
      "ust": 694,
      "Ġone": 695,
      "Ġcare": 696,
      "Ġfind": 697,
      "ouse": 698,
      "ist": 699,
      "ap": 700,
      "Ġbec": 701,
      "ny": 702,
      "ue": 703,
      "Ġthan": 704,
      "Ġmy": 705,
      "Ġwill": 706,
      "Ġfeel": 707,
      "Ġdad": 708,
      "Ġab": 709,
      "arn": 710,
      "Ġlook": 711,
      "our": 712,
      "udd": 713,
      "Ġgr": 714,
      "ers": 715,
      "Ġtoys": 716,
      "Ġgra": 717,
      "us": 718,
      "ess": 719,
      "Ġpo": 720,
      "Ġke": 721,
      "Ġdidn": 722,
      "ways": 723,
      "nder": 724,
      "Ġtook": 725,
      "fe": 726,
      "Ġball": 727,
      "Ġabout": 728,
      "ĠSam": 729,
      "Ġalways": 730,
      "ant": 731,
      "Ġmommy": 732,
      "Ġlot": 733,
      "Ġkne": 734,
      "bb": 735,
      "Ġtree": 736,
      "ise": 737,
      "ĠF": 738,
      "Ġoutside": 739,
      "Ġta": 740,
      "Ġthought": 741,
      "Ġlearn": 742,
      "ite": 743,
      "Ġmore": 744,
      "ret": 745,
      "ened": 746,
      "Ġho": 747,
      "Ġknow": 748,
      "Ġsor": 749,
      "ched": 750,
      "ged": 751,
      "eci": 752,
      "Ġint": 753,
      "Ġcat": 754,
      "ia": 755,
      "Ġold": 756,
      "Ġlaug": 757,
      "Ġtake": 758,
      "ive": 759,
      "ĠMax": 760,
      "Ġknew": 761,
      "Ġany": 762,
      "Ġspeci": 763,
      "Ġspecial": 764,
      "Ġpe": 765,
      "Ġsorry": 766,
      "udden": 767,
      "fter": 768,
      "Ġhow": 769,
      "But": 770,
      "ink": 771,
      "Ġtr": 772,
      "Ġrun": 773,
      "Ġshow": 774,
      "and": 775,
      "ish": 776,
      "uddenly": 777,
      "Ġsl": 778,
      "au": 779,
      "Ġmuch": 780,
      "Ġor": 781,
      "Ġhand": 782,
      "ma": 783,
      "Ġtw": 784,
      "Ġhouse": 785,
      "Ġop": 786,
      "Ġmo": 787,
      "Ġwater": 788,
      "Ġtried": 789,
      "Tom": 790,
      "ven": 791,
      "ank": 792,
      "Ġsk": 793,
      "ate": 794,
      "Ġclo": 795,
      "Ġinto": 796,
      "Ġsun": 797,
      "Ġinside": 798,
      "Ġtold": 799,
      "ump": 800,
      "ĠWe": 801,
      "ĠSara": 802,
      "ĠAnna": 803,
      "Ġgave": 804,
      "Ġeach": 805,
      "ty": 806,
      "Ġroom": 807,
      "Ġeat": 808,
      "Ġproud": 809,
      "Ġif": 810,
      "Ġheard": 811,
      "Ġqu": 812,
      "Ġthis": 813,
      "Ġover": 814,
      "Ġen": 815,
      "ace": 816,
      "Ġpret": 817,
      "other": 818,
      "Ġcouldn": 819,
      "Ġnever": 820,
      "ak": 821,
      "dy": 822,
      "Ġplayed": 823,
      "Mom": 824,
      "ause": 825,
      "Ġpick": 826,
      "by": 827,
      "ion": 828,
      "Ġhugged": 829,
      "etter": 830,
      "ĠEvery": 831,
      "here": 832,
      "ge": 833,
      "Ġgre": 834,
      "Ġcom": 835,
      "Ġexpl": 836,
      "Ġjust": 837,
      "Ġnice": 838,
      "Ġmany": 839,
      "Ġbox": 840,
      "Ġneed": 841,
      "oth": 842,
      "Ġwat": 843,
      "'m": 844,
      "Ġoff": 845,
      "sed": 846,
      "Ġstr": 847,
      "Ġbecause": 848,
      "gry": 849,
      "ile": 850,
      "Ġsmall": 851,
      "Ġbu": 852,
      "Ġfo": 853,
      "ving": 854,
      "iz": 855,
      "ine": 856,
      "Ġsn": 857,
      "Ġlong": 858,
      "imal": 859,
      "Ġjo": 860,
      "Ġanimal": 861,
      "urt": 862,
      "Ġbear": 863,
      "Ġtry": 864,
      "ort": 865,
      "uc": 866,
      "Ġlearned": 867,
      "ough": 868,
      "Ġlove": 869,
      "ĠMia": 870,
      "sel": 871,
      "Ġunt": 872,
      "ild": 873,
      "Ġkind": 874,
      "Ġuntil": 875,
      "ft": 876,
      "Ġbetter": 877,
      "Ġflow": 878,
      "Ġsay": 879,
      "em": 880,
      "Ġdon": 881,
      "ĠAnd": 882,
      "ĠJack": 883,
      "Ġim": 884,
      "urn": 885,
      "He": 886,
      "Ġcle": 887,
      "ves": 888,
      "Ġpu": 889,
      "Ġend": 890,
      "Ġbest": 891,
      "Yes": 892,
      "Ġcall": 893,
      "ady": 894,
      "ream": 895,
      "ars": 896,
      "Ġcareful": 897,
      "Ġfast": 898,
      "urp": 899,
      "ĠC": 900,
      "aut": 901,
      "Ġad": 902,
      "Th": 903,
      "arden": 904,
      "vent": 905,
      "Ġgarden": 906,
      "Ġfi": 907,
      "ber": 908,
      "Ġte": 909,
      "ies": 910,
      "ase": 911,
      "Ġloud": 912,
      "ĠJo": 913,
      "Ġbra": 914,
      "Ġbeaut": 915,
      "Ġjump": 916,
      "Ġche": 917,
      "Ġthanked": 918,
      "Ġsky": 919,
      "Ġlaughed": 920,
      "ĠHer": 921,
      "Ġby": 922,
      "pt": 923,
      "Ġeven": 924,
      "It": 925,
      "iny": 926,
      "Ġlist": 927,
      "ĠSo": 928,
      "lly": 929,
      "Ġgl": 930,
      "self": 931,
      "wn": 932,
      "Ġhurt": 933,
      "Ġcome": 934,
      "Ġhard": 935,
      "Ġstill": 936,
      "Ġanimals": 937,
      "Ġbeauti": 938,
      "Åĵ": 939,
      "lew": 940,
      "Ġbeautiful": 941,
      "Ġwo": 942,
      "Ġway": 943,
      "Ġunder": 944,
      "Ġfam": 945,
      "Ġlots": 946,
      "be": 947,
      "Ġlet": 948,
      "hes": 949,
      "Ġra": 950,
      "ĠThen": 951,
      "Ġbad": 952,
      "ect": 953,
      "ĠFrom": 954,
      "ct": 955,
      "Ġsafe": 956,
      "ock": 957,
      "ning": 958,
      "Ġboth": 959,
      "ool": 960,
      "Ġstay": 961,
      "Ġcu": 962,
      "Ġcol": 963,
      "kay": 964,
      "Ġbook": 965,
      "ĠHis": 966,
      "ast": 967,
      "ople": 968,
      "Ġangry": 969,
      "Ġrem": 970,
      "Tim": 971,
      "No": 972,
      "ĠÃ¢": 973,
      "Ġimp": 974,
      "ress": 975,
      "Ġlived": 976,
      "ished": 977,
      "Ġshould": 978,
      "Ġits": 979,
      "ree": 980,
      "Ġred": 981,
      "Ġtwo": 982,
      "Ġbrave": 983,
      "Ġpeople": 984,
      "Ġwalked": 985,
      "urpr": 986,
      "igh": 987,
      "ane": 988,
      "Ġfamily": 989,
      "Ġshare": 990,
      "Ġstor": 991,
      "Ġsurpr": 992,
      "Ġfin": 993,
      "Ben": 994,
      "ucy": 995,
      "Ġdan": 996,
      "Ġflew": 997,
      "Ġsoon": 998,
      "Ġdoll": 999,
      "Let": 1000,
      "ob": 1001,
      "ip": 1002,
      "xt": 1003,
      "When": 1004,
      "fore": 1005,
      "Ġfly": 1006,
      "Ġpic": 1007,
      "Ġcalled": 1008,
      "led": 1009,
      "Ġclean": 1010,
      "dded": 1011,
      "Ġpretty": 1012,
      "Ġfore": 1013,
      "Ġkept": 1014,
      "Ġrock": 1015,
      "ised": 1016,
      "Ġdoor": 1017,
      "Ġshiny": 1018,
      "Ġgoing": 1019,
      "Ġnoise": 1020,
      "Ġkeep": 1021,
      "hn": 1022,
      "Ġdra": 1023,
      "ĠP": 1024,
      "ĠWhen": 1025,
      "Ġcry": 1026,
      "Ġnow": 1027,
      "Ġturn": 1028,
      "so": 1029,
      "Ġwind": 1030,
      "Ġreal": 1031,
      "ummy": 1032,
      "Ġopened": 1033,
      "Ġide": 1034,
      "ary": 1035,
      "Ġalso": 1036,
      "Ġbefore": 1037,
      "Ġsto": 1038,
      "les": 1039,
      "Ġground": 1040,
      "Ġcon": 1041,
      "Ġadvent": 1042,
      "age": 1043,
      "âĤ¬â": 1044,
      "Ġhas": 1045,
      "ied": 1046,
      "illy": 1047,
      "Ġey": 1048,
      "What": 1049,
      "Ġcolor": 1050,
      "kes": 1051,
      "Ġidea": 1052,
      "oon": 1053,
      "Ġfr": 1054,
      "Ġexplore": 1055,
      "Ġfar": 1056,
      "Ġnodded": 1057,
      "aybe": 1058,
      "That": 1059,
      "imb": 1060,
      "Ġwar": 1061,
      "Ġun": 1062,
      "ture": 1063,
      "th": 1064,
      "Ġnext": 1065,
      "Ġclimb": 1066,
      "Ġpicked": 1067,
      "thing": 1068,
      "uch": 1069,
      "Ġsmile": 1070,
      "ĠDad": 1071,
      "oy": 1072,
      "Ġbed": 1073,
      "Ġtruck": 1074,
      "Ġwhile": 1075,
      "Ġthr": 1076,
      "Ġfeeling": 1077,
      "Ħ¢": 1078,
      "âĤ¬âĦ¢": 1079,
      "Thank": 1080,
      "eet": 1081,
      "Ġwalking": 1082,
      "Ġwr": 1083,
      "ger": 1084,
      "ĠLucy": 1085,
      "Ġthink": 1086,
      "Ġgive": 1087,
      "Ġpicture": 1088,
      "Ġbeing": 1089,
      "ff": 1090,
      "ĠG": 1091,
      "Ġadventure": 1092,
      "Ġma": 1093,
      "Ġtra": 1094,
      "Ġtow": 1095,
      "Ġfood": 1096,
      "Ġlisten": 1097,
      "Ġbro": 1098,
      "pot": 1099,
      "ac": 1100,
      "Ġdif": 1101,
      "iced": 1102,
      "Ġbre": 1103,
      "Ġclos": 1104,
      "ted": 1105,
      "Ġeyes": 1106,
      "Ġwait": 1107,
      "joy": 1108,
      "ious": 1109,
      "ught": 1110,
      "Ġafter": 1111,
      "Ġstopped": 1112,
      "Ġown": 1113,
      "Ġflowers": 1114,
      "Ġdel": 1115,
      "Ġlooking": 1116,
      "Ġfish": 1117,
      "ting": 1118,
      "Ġrepl": 1119,
      "Ġshout": 1120,
      "ember": 1121,
      "Ġhead": 1122,
      "Ġhands": 1123,
      "Ġslide": 1124,
      "She": 1125,
      "Ġblue": 1126,
      "Ġwalk": 1127,
      "Ġmean": 1128,
      "Ġvo": 1129,
      "Ġgreat": 1130,
      "ized": 1131,
      "Ġever": 1132,
      "Ġask": 1133,
      "irst": 1134,
      "Ġimport": 1135,
      "Ġus": 1136,
      "able": 1137,
      "Ġsound": 1138,
      "Ġenjoy": 1139,
      "Suddenly": 1140,
      "Ġokay": 1141,
      "lease": 1142,
      "Ġnear": 1143,
      "ĠSuddenly": 1144,
      "llow": 1145,
      "Ġapp": 1146,
      "Ġremember": 1147,
      "Anna": 1148,
      "We": 1149,
      "Ġforest": 1150,
      "Ġdis": 1151,
      "Ġrain": 1152,
      "Ġnoticed": 1153,
      "Ġwatch": 1154,
      "Ġquick": 1155,
      "Ġimportant": 1156,
      "Ġstick": 1157,
      "Ġwonder": 1158,
      "Ġour": 1159,
      "Ġtal": 1160,
      "bbit": 1161,
      "Ġwork": 1162,
      "Ġshowed": 1163,
      "maz": 1164,
      "Ġac": 1165,
      "Ġamaz": 1166,
      "Ġboat": 1167,
      "bbed": 1168,
      "Ġreplied": 1169,
      "Ġstrong": 1170,
      "fere": 1171,
      "Ġdoes": 1172,
      "ĠSpot": 1173,
      "Ġfollow": 1174,
      "bye": 1175,
      "Ġright": 1176,
      "Ġdiffere": 1177,
      "Ġsqu": 1178,
      "Ġwhere": 1179,
      "Ġeveryone": 1180,
      "gan": 1181,
      "Ġbright": 1182,
      "day": 1183,
      "Ġuse": 1184,
      "Look": 1185,
      "Ġrabbit": 1186,
      "Ġhop": 1187,
      "Ġyell": 1188,
      "co": 1189,
      "ila": 1190,
      "Ġwatched": 1191,
      "Ġde": 1192,
      "Sara": 1193,
      "ĠSue": 1194,
      "Ġdress": 1195,
      "Ġface": 1196,
      "ered": 1197,
      "Ġam": 1198,
      "Ġmor": 1199,
      "ath": 1200,
      "ĠMommy": 1201,
      "ĠN": 1202,
      "Ġquickly": 1203,
      "Ġcuri": 1204,
      "ange": 1205,
      "Ġdifferent": 1206,
      "Ġbecame": 1207,
      "Ġsure": 1208,
      "Ġbeen": 1209,
      "Ġvoice": 1210,
      "Ġblock": 1211,
      "aught": 1212,
      "Ġstore": 1213,
      "Ġchild": 1214,
      "Ġplace": 1215,
      "ng": 1216,
      "Ġwarm": 1217,
      "ĠBob": 1218,
      "Ġye": 1219,
      "So": 1220,
      "Ġhigh": 1221,
      "Ġforg": 1222,
      "Ġcake": 1223,
      "Ġmag": 1224,
      "Ġgoodbye": 1225,
      "ĠR": 1226,
      "Ġtell": 1227,
      "Ġcook": 1228,
      "leep": 1229,
      "more": 1230,
      "Ġanymore": 1231,
      "ndma": 1232,
      "Ġcloser": 1233,
      "itc": 1234,
      "Ġcurious": 1235,
      "Ġfav": 1236,
      "Ġpull": 1237,
      "Ġnight": 1238,
      "imes": 1239,
      "Ġopen": 1240,
      "ount": 1241,
      "ĠTh": 1242,
      "Ġbel": 1243,
      "Ġfirst": 1244,
      "Ġlea": 1245,
      "Ġhere": 1246,
      "iss": 1247,
      "Her": 1248,
      "Can": 1249,
      "Ġfell": 1250,
      "ired": 1251,
      "Ġbus": 1252,
      "Ġsees": 1253,
      "Ġz": 1254,
      "unny": 1255,
      "ached": 1256,
      "Ġru": 1257,
      "orn": 1258,
      "Ġbutter": 1259,
      "Ġpain": 1260,
      "Jo": 1261,
      "Ġkid": 1262,
      "itchen": 1263,
      "Ġkitchen": 1264,
      "Ġgrabbed": 1265,
      "Ġflo": 1266,
      "Ġsweet": 1267,
      "ull": 1268,
      "Ġonly": 1269,
      "Ġthree": 1270,
      "Ġsand": 1271,
      "Ġhelped": 1272,
      "Ġstop": 1273,
      "Ġmon": 1274,
      "Ġbirds": 1275,
      "Ġhappened": 1276,
      "Ġbit": 1277,
      "Ġfire": 1278,
      "Ġcont": 1279,
      "Ġglad": 1280,
      "Ġjumped": 1281,
      "Ġcra": 1282,
      "Ġba": 1283,
      "Ġdr": 1284,
      "ĠDo": 1285,
      "isy": 1286,
      "Ġtri": 1287,
      "Ġbrother": 1288,
      "Ġgrass": 1289,
      "Ġbeh": 1290,
      "Ġcr": 1291,
      "Ġsing": 1292,
      "ĠLet": 1293,
      "Ġshouted": 1294,
      "ins": 1295,
      "air": 1296,
      "akes": 1297,
      "Ġmess": 1298,
      "ppy": 1299,
      "After": 1300,
      "Ġper": 1301,
      "Ġrealized": 1302,
      "Ġstory": 1303,
      "Ġhat": 1304,
      "Ġsoft": 1305,
      "nts": 1306,
      "Ġlady": 1307,
      "'re": 1308,
      "Ġreached": 1309,
      "Ġyummy": 1310,
      "Ġpretend": 1311,
      "ass": 1312,
      "Ġgame": 1313,
      "Ġhaving": 1314,
      "Ġdraw": 1315,
      "Ġunderst": 1316,
      "Ġate": 1317,
      "Ġfavor": 1318,
      "Ġpap": 1319,
      "Ġlooks": 1320,
      "Ġfavorite": 1321,
      "Ġless": 1322,
      "Ġrest": 1323,
      "ĠSarah": 1324,
      "zy": 1325,
      "ĠCan": 1326,
      "Ġcre": 1327,
      "Ġprin": 1328,
      "Ġready": 1329,
      "ater": 1330,
      "Ġcars": 1331,
      "Ġthrough": 1332,
      "where": 1333,
      "ken": 1334,
      "ĠJane": 1335,
      "ĠAs": 1336,
      "Ġthing": 1337,
      "Ġmaking": 1338,
      "Ġduck": 1339,
      "ĠEveryone": 1340,
      "ĠThat": 1341,
      "Ġbunny": 1342,
      "Ġpare": 1343,
      "Wow": 1344,
      "Ġreally": 1345,
      "Ġmagic": 1346,
      "Ġcut": 1347,
      "Ġfix": 1348,
      "Ġpond": 1349,
      "Ġmum": 1350,
      "Ġkids": 1351,
      "ather": 1352,
      "Ġtired": 1353,
      "Ġblocks": 1354,
      "Mommy": 1355,
      "Ġtouch": 1356,
      "Ġcoming": 1357,
      "Ġworry": 1358,
      "Ġcried": 1359,
      "Ġworld": 1360,
      "Ġhimself": 1361,
      "Ġdone": 1362,
      "Ġbegan": 1363,
      "uff": 1364,
      "Ġbutterf": 1365,
      "bo": 1366,
      "Ġcatch": 1367,
      "Ġfunny": 1368,
      "Ġwaved": 1369,
      "Ġprom": 1370,
      "Ġhair": 1371,
      "Ġhold": 1372,
      "Ġname": 1373,
      "Ġanother": 1374,
      "Ġwhy": 1375,
      "fully": 1376,
      "Ġpus": 1377,
      "Ġflower": 1378,
      "Ġpart": 1379,
      "ign": 1380,
      "Ġused": 1381,
      "Ġste": 1382,
      "Ġfro": 1383,
      "Ġcool": 1384,
      "rel": 1385,
      "ster": 1386,
      "Ġlikes": 1387,
      "Ġfill": 1388,
      "ĠJoe": 1389,
      "oney": 1390,
      "Ġseen": 1391,
      "Ġfloor": 1392,
      "Ġtast": 1393,
      "Ġgreen": 1394,
      "eddy": 1395,
      "Ġtop": 1396,
      "iver": 1397,
      "ient": 1398,
      "hy": 1399,
      "Ġwished": 1400,
      "Ġdelic": 1401,
      "Ġgi": 1402,
      "Ġthank": 1403,
      "Ġswim": 1404,
      "sh": 1405,
      "Ġpaper": 1406,
      "Ġbag": 1407,
      "olly": 1408,
      "Ġlight": 1409,
      "Ġmouse": 1410,
      "Don": 1411,
      "Ġparents": 1412,
      "Ġdoing": 1413,
      "Timmy": 1414,
      "Ġlesson": 1415,
      "ation": 1416,
      "Ġsmell": 1417,
      "Ġbehind": 1418,
      "As": 1419,
      "Ġfarm": 1420,
      "Sam": 1421,
      "Ġdri": 1422,
      "ards": 1423,
      "Ġbow": 1424,
      "Ġsleep": 1425,
      "Ġsurprise": 1426,
      "aisy": 1427,
      "Ġwindow": 1428,
      "Ġread": 1429,
      "Ġhole": 1430,
      "Ġhopped": 1431,
      "Ġdro": 1432,
      "Ġdin": 1433,
      "Ġyellow": 1434,
      "ĠJohn": 1435,
      "Ġdark": 1436,
      "\".": 1437,
      "Ġlaugh": 1438,
      "Ġworked": 1439,
      "ike": 1440,
      "andy": 1441,
      "Ġtrees": 1442,
      "Ġrunning": 1443,
      "rew": 1444,
      "Ġsho": 1445,
      "Ġswing": 1446,
      "ren": 1447,
      "ued": 1448,
      "Ġwood": 1449,
      "ely": 1450,
      "Ġfull": 1451,
      "Ġcold": 1452,
      "Ġsat": 1453,
      "Ġspot": 1454,
      "Ġice": 1455,
      "ul": 1456,
      "aring": 1457,
      "Ġslow": 1458,
      "Ġsurprised": 1459,
      "Ġhappily": 1460,
      "Ġremembered": 1461,
      "Hell": 1462,
      "Hello": 1463,
      "Ġlost": 1464,
      "Ġbutterfly": 1465,
      "Ġset": 1466,
      "Ġbuy": 1467,
      "Ġ-": 1468,
      "ĠIn": 1469,
      "Ġneeded": 1470,
      "Ġfrog": 1471,
      "Ġheld": 1472,
      "Ġmove": 1473,
      "Ġyears": 1474,
      "Ġwrong": 1475,
      "uit": 1476,
      "ons": 1477,
      "Ġhear": 1478,
      "John": 1479,
      "Ġanything": 1480,
      "ens": 1481,
      "Ġcarefully": 1482,
      "Ġsnow": 1483,
      "Ġleft": 1484,
      "Ġfair": 1485,
      "Ġdir": 1486,
      "Ġhun": 1487,
      "Ġtall": 1488,
      "Ġfollowed": 1489,
      "Ġdream": 1490,
      "Ġtable": 1491,
      "Ġbooks": 1492,
      "Ġel": 1493,
      "Ġchildren": 1494,
      "Ġair": 1495,
      "Ġperf": 1496,
      "Ġhot": 1497,
      "ĠLila": 1498,
      "Ġbug": 1499,
      "Ġhid": 1500,
      "Ġplease": 1501,
      "Ġfinished": 1502,
      "reed": 1503,
      "Ġenjoyed": 1504,
      "ds": 1505,
      "Ġunderstand": 1506,
      "Ġfriendly": 1507,
      "cess": 1508,
      "Ġherself": 1509,
      "ined": 1510,
      "Ġarri": 1511,
      "Ġcast": 1512,
      "Ġhill": 1513,
      "Ġmight": 1514,
      "Ġclose": 1515,
      "ross": 1516,
      "inally": 1517,
      "Ġelse": 1518,
      "Ġcontin": 1519,
      "ĠBenny": 1520,
      "Ġcolors": 1521,
      "ĠAfter": 1522,
      "Ġbroken": 1523,
      "lf": 1524,
      "Ġforgot": 1525,
      "Ġarm": 1526,
      "Ġbuild": 1527,
      "sp": 1528,
      "Ġdelicious": 1529,
      "Ġwants": 1530,
      "OK": 1531,
      "Ġgent": 1532,
      "ash": 1533,
      "atter": 1534,
      "Ġrel": 1535,
      "asure": 1536,
      "ield": 1537,
      "Ġgone": 1538,
      "ĠNow": 1539,
      "Ġleaves": 1540,
      "Ġwall": 1541,
      "Ġarrived": 1542,
      "Ġtight": 1543,
      "Ġsong": 1544,
      "ner": 1545,
      "room": 1546,
      "av": 1547,
      "Ġbaby": 1548,
      "Ġsquir": 1549,
      "Ġsomeone": 1550,
      "Ġwonderful": 1551,
      "Ġable": 1552,
      "Then": 1553,
      "Ġcreat": 1554,
      "Ġyes": 1555,
      "ĠSally": 1556,
      "ich": 1557,
      "ask": 1558,
      "ĠMaybe": 1559,
      "Ġcount": 1560,
      "Ġfilled": 1561,
      "ee": 1562,
      "ĠThere": 1563,
      "Ġsquirrel": 1564,
      "Ġcontinued": 1565,
      "Ġbreak": 1566,
      "ĠDaisy": 1567,
      "Ġagreed": 1568,
      "Ġpoin": 1569,
      "Ġpink": 1570,
      "Ġlion": 1571,
      "Ġfall": 1572,
      "Ġcookies": 1573,
      "Ġvis": 1574,
      "From": 1575,
      "Ġscary": 1576,
      "Ġmakes": 1577,
      "ey": 1578,
      "'ll": 1579,
      "Jack": 1580,
      "ries": 1581,
      "Ġgrandma": 1582,
      "Ġsmiles": 1583,
      "Ġju": 1584,
      "ĠEm": 1585,
      "Ġmoment": 1586,
      "Ġfight": 1587,
      "Ġsometimes": 1588,
      "Ġenough": 1589,
      "man": 1590,
      "Ġhungry": 1591,
      "icy": 1592,
      "Ġturned": 1593,
      "Ġstayed": 1594,
      "Ġfinally": 1595,
      "Ġpi": 1596,
      "Ġwet": 1597,
      "Ġcream": 1598,
      "Ġcastle": 1599,
      "row": 1600,
      "Ġmorning": 1601,
      "Ġpictures": 1602,
      "Ġgetting": 1603,
      "ĠK": 1604,
      "ĠTommy": 1605,
      "Ġothers": 1606,
      "Ġcomp": 1607,
      "ĠThis": 1608,
      "app": 1609,
      "gon": 1610,
      "Ġbeach": 1611,
      "Ġdinner": 1612,
      "Ġtalk": 1613,
      "oup": 1614,
      "Ġlistened": 1615,
      "ĠWhat": 1616,
      "Ġtrying": 1617,
      "Ġclimbed": 1618,
      "oom": 1619,
      "This": 1620,
      "ama": 1621,
      "Ġclot": 1622,
      "Ġtail": 1623,
      "Ġmus": 1624,
      "Ġmet": 1625,
      "Ġasks": 1626,
      "Ġclothes": 1627,
      "ance": 1628,
      "lc": 1629,
      "Ġmother": 1630,
      "ced": 1631,
      "rot": 1632,
      "apped": 1633,
      "Ġamazing": 1634,
      "Ġballoon": 1635,
      "Ġfew": 1636,
      "At": 1637,
      "Ġwhite": 1638,
      "ence": 1639,
      "uffy": 1640,
      "Ġmar": 1641,
      "Ġpuppy": 1642,
      "red": 1643,
      "Ġspl": 1644,
      "key": 1645,
      "Ġfur": 1646,
      "Ġalone": 1647,
      "Ġperfect": 1648,
      "His": 1649,
      "oring": 1650,
      "Ġpet": 1651,
      "ĠGra": 1652,
      "Oh": 1653,
      "Ġdaddy": 1654,
      "Ġsit": 1655,
      "ister": 1656,
      "ĠBilly": 1657,
      "ucky": 1658,
      "ĠJen": 1659,
      "Ġsail": 1660,
      "ctor": 1661,
      "Ġpol": 1662,
      "amp": 1663,
      "Ġbrought": 1664,
      "Ġgrow": 1665,
      "der": 1666,
      "ott": 1667,
      "Ġeverything": 1668,
      "Ġpulled": 1669,
      "Ġwasn": 1670,
      "wl": 1671,
      "Ġwaited": 1672,
      "Ġride": 1673,
      "Ġsear": 1674,
      "Ġstrange": 1675,
      "Ġdanger": 1676,
      "ated": 1677,
      "Ġpie": 1678,
      "Ġwon": 1679,
      "Ġroll": 1680,
      "Ġspark": 1681,
      "Ġruns": 1682,
      "Ġjoy": 1683,
      "Ġwoods": 1684,
      "Ġdeep": 1685,
      "Ġhide": 1686,
      "ĠTo": 1687,
      "Ġvisit": 1688,
      "Ġthinks": 1689,
      "Ġplan": 1690,
      "ower": 1691,
      "Ġleave": 1692,
      "Maybe": 1693,
      "zz": 1694,
      "me": 1695,
      "Ġliving": 1696,
      "Ġpat": 1697,
      "Ġfox": 1698,
      "Ġmusic": 1699,
      "Ġamazed": 1700,
      "os": 1701,
      "eter": 1702,
      "Ġsilly": 1703,
      "ape": 1704,
      "Ġtowards": 1705,
      "Ġteddy": 1706,
      "ang": 1707,
      "Ġpen": 1708,
      "Okay": 1709,
      "Ġcloud": 1710,
      "gs": 1711,
      "Max": 1712,
      "Ġflying": 1713,
      "med": 1714,
      "ises": 1715,
      "ever": 1716,
      "ugg": 1717,
      "Ġem": 1718,
      "Ġtreat": 1719,
      "ames": 1720,
      "Ġowner": 1721,
      "thy": 1722,
      "Ġqui": 1723,
      "Ġgu": 1724,
      "Ġpa": 1725,
      "Ġshared": 1726,
      "Ġland": 1727,
      "Ġpre": 1728,
      "igg": 1729,
      "Ġsister": 1730,
      "ope": 1731,
      "ĠAmy": 1732,
      "ained": 1733,
      "ix": 1734,
      "Ġmoney": 1735,
      "Ġgrate": 1736,
      "Ġpromised": 1737,
      "Ġbroke": 1738,
      "Ġrace": 1739,
      "cle": 1740,
      "Ġfield": 1741,
      "Ġside": 1742,
      "cket": 1743,
      "Ġfaster": 1744,
      "up": 1745,
      "Ġlake": 1746,
      "Ġpaint": 1747,
      "Ġbott": 1748,
      "avy": 1749,
      "Ġgrateful": 1750,
      "Ġquiet": 1751,
      "Ġmoral": 1752,
      "Ġjob": 1753,
      "Ġbran": 1754,
      "Ġparty": 1755,
      "Ġtrain": 1756,
      "eces": 1757,
      "Ġbelie": 1758,
      "unch": 1759,
      "Ġpieces": 1760,
      "Ġcup": 1761,
      "Ġwear": 1762,
      "Ġdance": 1763,
      "sw": 1764,
      "Ġcandy": 1765,
      "Ġworried": 1766,
      "Ġmust": 1767,
      "Ġansw": 1768,
      "Ġtreasure": 1769,
      "Ġdolls": 1770,
      "Ġele": 1771,
      "Ġblank": 1772,
      "Ġslowly": 1773,
      "Ġgif": 1774,
      "Ġwelc": 1775,
      "Ġreach": 1776,
      "Ġcolorful": 1777,
      "ze": 1778,
      "outh": 1779,
      "Ġbike": 1780,
      "Ġbigger": 1781,
      "Ġscream": 1782,
      "ph": 1783,
      "ol": 1784,
      "Ġcho": 1785,
      "Ġmouth": 1786,
      "Ġblanket": 1787,
      "Ġve": 1788,
      "Ġsmart": 1789,
      "Ġblack": 1790,
      "ually": 1791,
      "Ġsnack": 1792,
      "ased": 1793,
      "Ġriver": 1794,
      "Sure": 1795,
      "orm": 1796,
      "ĠJim": 1797,
      "ling": 1798,
      "Ġeverywhere": 1799,
      "ire": 1800,
      "Ġpro": 1801,
      "Ġdangerous": 1802,
      "Ġbar": 1803,
      "fort": 1804,
      "cked": 1805,
      "Ġtower": 1806,
      "Ġwin": 1807,
      "Ġsuch": 1808,
      "less": 1809,
      "Ġtwins": 1810,
      "Ġnap": 1811,
      "Ġthrew": 1812,
      "Ġplant": 1813,
      "ĠAll": 1814,
      "Ġjoin": 1815,
      "Ġdirty": 1816,
      "Ġhelping": 1817,
      "Ġje": 1818,
      "Ġsign": 1819,
      "Ġpot": 1820,
      "Ġprincess": 1821,
      "Ġmonster": 1822,
      "Ġcrying": 1823,
      "Ġhoped": 1824,
      "Ġbowl": 1825,
      "ĠFl": 1826,
      "set": 1827,
      "Ġmonkey": 1828,
      "Ġmagical": 1829,
      "ored": 1830,
      "Ġdragon": 1831,
      "ipped": 1832,
      "Ġbee": 1833,
      "Ġwords": 1834,
      "Mia": 1835,
      "Ġbite": 1836,
      "Ġspr": 1837,
      "Ġheavy": 1838,
      "ming": 1839,
      "Ġcarrot": 1840,
      "Ġdoctor": 1841,
      "ident": 1842,
      "Ġmost": 1843,
      "Hi": 1844,
      "Ġacc": 1845,
      "de": 1846,
      "Ġsame": 1847,
      "Why": 1848,
      "bble": 1849,
      "Ġfruit": 1850,
      "ere": 1851,
      "Ġacross": 1852,
      "ear": 1853,
      "Ġbuck": 1854,
      "Ġheal": 1855,
      "Ġfarmer": 1856,
      "Ġteac": 1857,
      "Ġfeels": 1858,
      "Ġbath": 1859,
      "Ġclosed": 1860,
      "ĠDaddy": 1861,
      "Ġdisapp": 1862,
      "Ġhig": 1863,
      "Ġstuck": 1864,
      "ĠJill": 1865,
      "Ġstepped": 1866,
      "ĠMr": 1867,
      "Ġmix": 1868,
      "eared": 1869,
      "Ġcoll": 1870,
      "Ġbutt": 1871,
      "Ġtown": 1872,
      "chool": 1873,
      "Ġheart": 1874,
      "Ġstre": 1875,
      "Ġwouldn": 1876,
      "Ġatt": 1877,
      "asket": 1878,
      "Ġcray": 1879,
      "Ġcour": 1880,
      "Ġbasket": 1881,
      "Ġbelieve": 1882,
      "Ġchair": 1883,
      "ĠMolly": 1884,
      "Ġeating": 1885,
      "Ġpushed": 1886,
      "Ġbrown": 1887,
      "Ġschool": 1888,
      "issed": 1889,
      "Ġhit": 1890,
      "Ġteacher": 1891,
      "Ġcourse": 1892,
      "Ġyard": 1893,
      "iting": 1894,
      "Ġswings": 1895,
      "ts": 1896,
      "Ġgentle": 1897,
      "Ġpack": 1898,
      "Ġwithout": 1899,
      "Ġfairy": 1900,
      "Ġsmo": 1901,
      "ord": 1902,
      "Ġwelcome": 1903,
      "Ġnoises": 1904,
      "Ġmin": 1905,
      "Lila": 1906,
      "Ġtoday": 1907,
      "Ġneigh": 1908,
      "Ġpers": 1909,
      "Ġclapped": 1910,
      "Ġturns": 1911,
      "Ġhigher": 1912,
      "orrow": 1913,
      "Ġaccident": 1914,
      "ors": 1915,
      "umb": 1916,
      "pping": 1917,
      "Ġgames": 1918,
      "Ġsec": 1919,
      "Ġneighb": 1920,
      "Ġthrow": 1921,
      "br": 1922,
      "ier": 1923,
      "Ġneck": 1924,
      "vel": 1925,
      "Ġdrove": 1926,
      "Ġhugs": 1927,
      "Ġstand": 1928,
      "Ġben": 1929,
      "Ġsuddenly": 1930,
      "ho": 1931,
      "Ġpocket": 1932,
      "ourn": 1933,
      "ventually": 1934,
      "Ġpiece": 1935,
      "Ġdry": 1936,
      "Ġforget": 1937,
      "Ġlon": 1938,
      "Ġjourn": 1939,
      "Ġfree": 1940,
      "Ġcheered": 1941,
      "Ġfence": 1942,
      "ract": 1943,
      "ead": 1944,
      "Ġlonely": 1945,
      "Ġwings": 1946,
      "Ġhappen": 1947,
      "phant": 1948,
      "cy": 1949,
      "Ġwell": 1950,
      "Ġexplained": 1951,
      "Ġalong": 1952,
      "Ġsea": 1953,
      "Ġmat": 1954,
      "itting": 1955,
      "Ġstories": 1956,
      "Ġsang": 1957,
      "Ġlate": 1958,
      "Ġinst": 1959,
      "ches": 1960,
      "ible": 1961,
      "Ġupset": 1962,
      "Ġlonger": 1963,
      "Ġcorn": 1964,
      "Ġelephant": 1965,
      "Ġshook": 1966,
      "Ġshoes": 1967,
      "Ġtrou": 1968,
      "ocked": 1969,
      "Ġcaught": 1970,
      "Ġsoup": 1971,
      "Ġmiss": 1972,
      "Ġwish": 1973,
      "Ġlunch": 1974,
      "Ġmine": 1975,
      "Ġstar": 1976,
      "Finally": 1977,
      "Ġstars": 1978,
      "Ġshap": 1979,
      "Ġwhe": 1980,
      "Ġpurp": 1981,
      "Ġbucket": 1982,
      "Ġadventures": 1983,
      "Ġrocks": 1984,
      "Ġsecret": 1985,
      "oun": 1986,
      "Ġph": 1987,
      "Ġdropped": 1988,
      "ment": 1989,
      "Ġyoung": 1990,
      "Ġjar": 1991,
      "Ġbring": 1992,
      "bby": 1993,
      "Ġmoved": 1994,
      "Ġpast": 1995,
      "ces": 1996,
      "Ġtom": 1997,
      "Ġsinging": 1998,
      "Ġswam": 1999,
      "Ġdist": 2000,
      "aughty": 2001,
      "Ġbelong": 2002,
      "ek": 2003,
      "Ġnaughty": 2004,
      "ĠThank": 2005,
      "Ġtakes": 2006,
      "Do": 2007,
      "Ġplac": 2008,
      "Ġapple": 2009,
      "yard": 2010,
      "Ġpurple": 2011,
      "ountain": 2012,
      "llo": 2013,
      "ub": 2014,
      "Ġbackyard": 2015,
      "Ġtaking": 2016,
      "Ġdrink": 2017,
      "ĠGrandma": 2018,
      "Ġowl": 2019,
      "fused": 2020,
      "ĠMary": 2021,
      "Ġorange": 2022,
      "Ġstreet": 2023,
      "ĠFluffy": 2024,
      "Ġcomes": 2025,
      "Ġshapes": 2026,
      "Ġexp": 2027,
      "Ġnose": 2028,
      "bow": 2029,
      "Ġjuice": 2030,
      "ail": 2031,
      "Ġresp": 2032,
      "Ġkey": 2033,
      "Ġwise": 2034,
      "Ġcow": 2035,
      "Ġsounds": 2036,
      "Ġnothing": 2037,
      "ward": 2038,
      "Ġpig": 2039,
      "col": 2040,
      "Ġnearby": 2041,
      "Ġca": 2042,
      "Ġbench": 2043,
      "Ġes": 2044,
      "ĠEmma": 2045,
      "Ġwondered": 2046,
      "Ġexploring": 2047,
      "ush": 2048,
      "Ġmad": 2049,
      "ung": 2050,
      "Ġcou": 2051,
      "Ġaf": 2052,
      "Ġsick": 2053,
      "cks": 2054,
      "Ġwoke": 2055,
      "Ġbusy": 2056,
      "ese": 2057,
      "Ġshop": 2058,
      "Ġseemed": 2059,
      "Ġstu": 2060,
      "fish": 2061,
      "Ġmail": 2062,
      "Ġinv": 2063,
      "Ġrelie": 2064,
      "adow": 2065,
      "Ġdes": 2066,
      "aughter": 2067,
      "ions": 2068,
      "Ġthough": 2069,
      "cing": 2070,
      "Ġholding": 2071,
      "sy": 2072,
      "Ġbranch": 2073,
      "ĠO": 2074,
      "And": 2075,
      "Ġmark": 2076,
      "ittens": 2077,
      "Ġsitting": 2078,
      "Ġarms": 2079,
      "Ġtiny": 2080,
      "Ġrainbow": 2081,
      "Ġyear": 2082,
      "Ġnest": 2083,
      "Ġmil": 2084,
      "ining": 2085,
      "raid": 2086,
      "Ġob": 2087,
      "Ġafraid": 2088,
      "thday": 2089,
      "weet": 2090,
      "ity": 2091,
      "Ġround": 2092,
      "ĠCome": 2093,
      "Ġdriver": 2094,
      "ose": 2095,
      "Ġspoon": 2096,
      "pper": 2097,
      "Ġ3": 2098,
      "Ġcute": 2099,
      "Ġpatient": 2100,
      "Ġgift": 2101,
      "read": 2102,
      "Ġlift": 2103,
      "Ġkite": 2104,
      "Ġking": 2105,
      "Ġcir": 2106,
      "Ġcarry": 2107,
      "Ġdaughter": 2108,
      "Ġhello": 2109,
      "to": 2110,
      "eth": 2111,
      "Of": 2112,
      "Ġfit": 2113,
      "Ġshell": 2114,
      "vered": 2115,
      "Ġboun": 2116,
      "idge": 2117,
      "Ġwhist": 2118,
      "ĠInside": 2119,
      "Ġpeace": 2120,
      "Ġforever": 2121,
      "Ġband": 2122,
      "Ġbread": 2123,
      "Ġcoat": 2124,
      "uched": 2125,
      "Ġtouched": 2126,
      "board": 2127,
      "Ġhuge": 2128,
      "Ġpromise": 2129,
      "Ġputs": 2130,
      "Ġgrab": 2131,
      "Ġcheese": 2132,
      "Ġgives": 2133,
      "Ġhope": 2134,
      "let": 2135,
      "sting": 2136,
      "Ġrelieved": 2137,
      "cer": 2138,
      "Hey": 2139,
      "Ġbottle": 2140,
      "Ġbirthday": 2141,
      "ours": 2142,
      "Ġfing": 2143,
      "Ġaccidentally": 2144,
      "Ġletter": 2145,
      "Ġswimming": 2146,
      "ĠSammy": 2147,
      "shine": 2148,
      "Ġgigg": 2149,
      "alm": 2150,
      "Ġwra": 2151,
      "ĠFinally": 2152,
      "Ġpower": 2153,
      "Ġintere": 2154,
      "Ġmilk": 2155,
      "Ġkick": 2156,
      "gg": 2157,
      "Ġact": 2158,
      "Ġlife": 2159,
      "Ġmist": 2160,
      "Ġcozy": 2161,
      "Ġonto": 2162,
      "unt": 2163,
      "og": 2164,
      "Ġjourney": 2165,
      "Ġlucky": 2166,
      "Ġcreature": 2167,
      "Ġexciting": 2168,
      "Ġsunshine": 2169,
      "gged": 2170,
      "Ġlaughing": 2171,
      "Ġinstead": 2172,
      "Later": 2173,
      "Ġdays": 2174,
      "Ġbush": 2175,
      "ped": 2176,
      "Ġfan": 2177,
      "arp": 2178,
      "Ġspin": 2179,
      "Ġcollect": 2180,
      "Ġpudd": 2181,
      "Ġpointed": 2182,
      "Ġsunny": 2183,
      "Ġcomfort": 2184,
      "Ġret": 2185,
      "itch": 2186,
      "Ġear": 2187,
      "Ġimag": 2188,
      "Ġroad": 2189,
      "Ġcave": 2190,
      "ball": 2191,
      "ness": 2192,
      "Ġdisco": 2193,
      "Ġsharp": 2194,
      "Tommy": 2195,
      "ten": 2196,
      "Ġinc": 2197,
      "Ġanyone": 2198,
      "Ġeas": 2199,
      "els": 2200,
      "Ġspo": 2201,
      "ize": 2202,
      "Ġsmiling": 2203,
      "Ġreturn": 2204,
      "Ġlater": 2205,
      "Ġhoney": 2206,
      "Ġwom": 2207,
      "Ġsandw": 2208,
      "Ġwoman": 2209,
      "Ġtalked": 2210,
      "Ġwatching": 2211,
      "Ġducks": 2212,
      "ĠMama": 2213,
      "Ġsearched": 2214,
      "ĠSoon": 2215,
      "mer": 2216,
      "Ġbought": 2217,
      "Ġhor": 2218,
      "blem": 2219,
      "Good": 2220,
      "Ġproblem": 2221,
      "Ġbutton": 2222,
      "Ġloves": 2223,
      "Ġgather": 2224,
      "Ġmeet": 2225,
      "Ġtrouble": 2226,
      "Ġpop": 2227,
      "irt": 2228,
      "Ġsuc": 2229,
      "Ġhealthy": 2230,
      "Ġpile": 2231,
      "Ġkiss": 2232,
      "Ġsnowman": 2233,
      "Ġperson": 2234,
      "Ġapples": 2235,
      "Ġmach": 2236,
      "Ġcrayons": 2237,
      "round": 2238,
      "Ġsmelled": 2239,
      "Ġrope": 2240,
      "Bob": 2241,
      "Ġtasty": 2242,
      "Ġstorm": 2243,
      "Ġsu": 2244,
      "Ġspid": 2245,
      "itten": 2246,
      "Ġce": 2247,
      "ĠTweet": 2248,
      "ndp": 2249,
      "Ġplane": 2250,
      "Ġzoom": 2251,
      "Ġinteresting": 2252,
      "amed": 2253,
      "Ġent": 2254,
      "Ġclever": 2255,
      "Ġclouds": 2256,
      "Ġshining": 2257,
      "Ġwide": 2258,
      "Ġzoo": 2259,
      "Ġpar": 2260,
      "eb": 2261,
      "Ġres": 2262,
      "Ġrespect": 2263,
      "Ġscreamed": 2264,
      "ove": 2265,
      "Ġmud": 2266,
      "Ġcard": 2267,
      "aur": 2268,
      "ale": 2269,
      "een": 2270,
      "Ġmatter": 2271,
      "Ġpill": 2272,
      "owed": 2273,
      "Ġpres": 2274,
      "ĠSomet": 2275,
      "Ġadm": 2276,
      "Ġorgan": 2277,
      "ont": 2278,
      "Ġgoes": 2279,
      "Ġfeather": 2280,
      "Ġbark": 2281,
      "Ġsnake": 2282,
      "Ġhon": 2283,
      "Ġpuzz": 2284,
      "epend": 2285,
      "ĠEll": 2286,
      "oose": 2287,
      "Ġprot": 2288,
      "Ġfront": 2289,
      "Ġpract": 2290,
      "Ġap": 2291,
      "Ġseat": 2292,
      "ĠWith": 2293,
      "Ġanswer": 2294,
      "Ġtrip": 2295,
      "Ġasleep": 2296,
      "ex": 2297,
      "Ġeag": 2298,
      "Lucy": 2299,
      "Ġsur": 2300,
      "Ġtries": 2301,
      "Ġprotect": 2302,
      "Ġquest": 2303,
      "Come": 2304,
      "Ġsaf": 2305,
      "St": 2306,
      "Ġteach": 2307,
      "Ġneighbor": 2308,
      "Ġteeth": 2309,
      "Ġdanced": 2310,
      "ÅĵI": 2311,
      "Ġhorse": 2312,
      "Ġforgive": 2313,
      "Ġlovely": 2314,
      "Ġpath": 2315,
      "Ġshr": 2316,
      "ĠMittens": 2317,
      "Ġgently": 2318,
      "Ġgiant": 2319,
      "ndpa": 2320,
      "Ġslid": 2321,
      "Ġappeared": 2322,
      "Ġvill": 2323,
      "Ġpresent": 2324,
      "erly": 2325,
      "Ġspotted": 2326,
      "Ġwhich": 2327,
      "Ġwearing": 2328,
      "Just": 2329,
      "ĠGo": 2330,
      "Ġplaces": 2331,
      "Ġphone": 2332,
      "isa": 2333,
      "Ġdirt": 2334,
      "ĠHow": 2335,
      "Ġval": 2336,
      "Ġcheer": 2337,
      "Ġwild": 2338,
      "Ġminut": 2339,
      "Ġcalm": 2340,
      "Ġlive": 2341,
      "Ġwhole": 2342,
      "Ġmyster": 2343,
      "Ġrude": 2344,
      "ching": 2345,
      "Ġmind": 2346,
      "ular": 2347,
      "Ġpretended": 2348,
      "itty": 2349,
      "Ġworm": 2350,
      "Ġash": 2351,
      "Ġdi": 2352,
      "la": 2353,
      "Ġrolled": 2354,
      "ones": 2355,
      "Ġfaces": 2356,
      "Ġthin": 2357,
      "Ġimpress": 2358,
      "Ġpass": 2359,
      "Jim": 2360,
      "Ġmachine": 2361,
      "ĠJimmy": 2362,
      "ert": 2363,
      "Ġconfused": 2364,
      "izz": 2365,
      "Molly": 2366,
      "Ġmed": 2367,
      "Ġtasted": 2368,
      "ssed": 2369,
      "Ġsplas": 2370,
      "Ġtun": 2371,
      "Ġpour": 2372,
      "Ġcouch": 2373,
      "Ġsack": 2374,
      "Ġdrive": 2375,
      "Ġban": 2376,
      "Ġser": 2377,
      "Ġcoin": 2378,
      "cean": 2379,
      "Ġocean": 2380,
      "nic": 2381,
      "Ġchocol": 2382,
      "Ġlad": 2383,
      "Ġpicnic": 2384,
      "Ġcorner": 2385,
      "Every": 2386,
      "unk": 2387,
      "Ġspent": 2388,
      "Ġpan": 2389,
      "Ġfeet": 2390,
      "Ġsupp": 2391,
      "In": 2392,
      "Ġring": 2393,
      "Ġwave": 2394,
      "Ġbugs": 2395,
      "ator": 2396,
      "Ġcookie": 2397,
      "Ġspider": 2398,
      "Ġoven": 2399,
      "Ġsal": 2400,
      "Mum": 2401,
      "Ġtomorrow": 2402,
      "Ġpush": 2403,
      "umber": 2404,
      "Ġfurry": 2405,
      "Ġbuilding": 2406,
      "Ġemb": 2407,
      "Ġign": 2408,
      "hile": 2409,
      "Ġsmooth": 2410,
      "Ġwrite": 2411,
      "Ġlay": 2412,
      "Ġneckl": 2413,
      "Ġhiding": 2414,
      "Ġwip": 2415,
      "Ġknee": 2416,
      "ato": 2417,
      "Ġsel": 2418,
      "Ġfold": 2419,
      "als": 2420,
      "Ġcann": 2421,
      "Ġbubble": 2422,
      "Ġchick": 2423,
      "Ġlast": 2424,
      "ĠEmily": 2425,
      "Ġladder": 2426,
      "Ġfighting": 2427,
      "Ġrob": 2428,
      "Ġpool": 2429,
      "ĠCh": 2430,
      "Ġcannot": 2431,
      "Ġhelpful": 2432,
      "Ġrec": 2433,
      "Ġchocolate": 2434,
      "Ġtid": 2435,
      "Ġremind": 2436,
      "arge": 2437,
      "Ġfinish": 2438,
      "Ġtalking": 2439,
      "Ġblew": 2440,
      "Ġleaf": 2441,
      "ĠSometimes": 2442,
      "Ġdelight": 2443,
      "Ġcart": 2444,
      "Ġfoot": 2445,
      "Ġmountain": 2446,
      "arra": 2447,
      "Ġpaw": 2448,
      "Ġmaybe": 2449,
      "Ġbanan": 2450,
      "ighed": 2451,
      "Ġpuddle": 2452,
      "Ġchased": 2453,
      "Ġstret": 2454,
      "Ġembarra": 2455,
      "Ġsongs": 2456,
      "Ġwaiting": 2457,
      "Ġselfish": 2458,
      "Ġwore": 2459,
      "ife": 2460,
      "mo": 2461,
      "Ġbell": 2462,
      "Ġspread": 2463,
      "ĠLe": 2464,
      "ĠJenny": 2465,
      "lex": 2466,
      "Ġshy": 2467,
      "Ġrep": 2468,
      "Ġtool": 2469,
      "Ġwash": 2470,
      "Ġeventually": 2471,
      "Soon": 2472,
      "ĠPlease": 2473,
      "Ġfixed": 2474,
      "Ġstring": 2475,
      "Ġbarked": 2476,
      "Ġrobot": 2477,
      "Ġsol": 2478,
      "Ġcloth": 2479,
      "ĠJust": 2480,
      "Ġtaste": 2481,
      "Ġcross": 2482,
      "Ġnet": 2483,
      "Ġbat": 2484,
      "Ġnecklace": 2485,
      "umpy": 2486,
      "Ġant": 2487,
      "My": 2488,
      "Ġcoo": 2489,
      "Ġspray": 2490,
      "Ġhears": 2491,
      "Ġscar": 2492,
      "ĠSt": 2493,
      "Ġlarge": 2494,
      "Ġwhenever": 2495,
      "Ġknocked": 2496,
      "ult": 2497,
      "Ġstone": 2498,
      "Ġmissed": 2499,
      "Ġtidy": 2500,
      "Ġpeaceful": 2501,
      "Ġstra": 2502,
      "oph": 2503,
      "Ġshelf": 2504,
      "Ġstep": 2505,
      "Ġcreative": 2506,
      "Please": 2507,
      "orry": 2508,
      "Ġplate": 2509,
      "box": 2510,
      "Ġwhistle": 2511,
      "Ġstir": 2512,
      "Ġhum": 2513,
      "urse": 2514,
      "airs": 2515,
      "ĠTheir": 2516,
      "Ġtreats": 2517,
      "lebr": 2518,
      "Ġtells": 2519,
      "Dad": 2520,
      "iger": 2521,
      "Ġspe": 2522,
      "Ġgen": 2523,
      "Ġcelebr": 2524,
      "Ġdecor": 2525,
      "Ġsticks": 2526,
      "Ġvillage": 2527,
      "old": 2528,
      "ungle": 2529,
      "ĠSome": 2530,
      "ĠEverywhere": 2531,
      "Ġtrust": 2532,
      "Ġtea": 2533,
      "Ġcrab": 2534,
      "Ġjungle": 2535,
      "elly": 2536,
      "Ġembarrassed": 2537,
      "Ġwhis": 2538,
      "Ġshirt": 2539,
      "Now": 2540,
      "Ġcarrots": 2541,
      "getable": 2542,
      "Ġsharing": 2543,
      "hnn": 2544,
      "Ġcolour": 2545,
      "Ġvegetable": 2546,
      "ĠTV": 2547,
      "Ġsplash": 2548,
      "Ġhel": 2549,
      "ĠJake": 2550,
      "Ġnut": 2551,
      "Ġemp": 2552,
      "arm": 2553,
      "Ġforward": 2554,
      "Ġlegs": 2555,
      "Ġnods": 2556,
      "Ġempty": 2557,
      "dge": 2558,
      "Ġjumping": 2559,
      "Ġ'": 2560,
      "ird": 2561,
      "Ġmoon": 2562,
      "Ġrocket": 2563,
      "Ġpillow": 2564,
      "Ġashamed": 2565,
      "Ġlanded": 2566,
      "inted": 2567,
      "ano": 2568,
      "Ġspicy": 2569,
      "Ġple": 2570,
      "Ġgray": 2571,
      "most": 2572,
      "Ġgun": 2573,
      "hnny": 2574,
      "Ġsave": 2575,
      "Ġdeter": 2576,
      "Mama": 2577,
      "Ġpolice": 2578,
      "lice": 2579,
      "Ġbal": 2580,
      "erp": 2581,
      "ĠDon": 2582,
      "ĠWhy": 2583,
      "Ġdeterm": 2584,
      "ying": 2585,
      "Ġgrew": 2586,
      "Be": 2587,
      "Ġalmost": 2588,
      "Ġtightly": 2589,
      "ĠAnn": 2590,
      "Ġthese": 2591,
      "Ġsour": 2592,
      "Ġmeant": 2593,
      "Ġber": 2594,
      "Ġsheep": 2595,
      "Ġwhisp": 2596,
      "aking": 2597,
      "Ġunderstood": 2598,
      "Stop": 2599,
      "Ġjew": 2600,
      "Ġhonest": 2601,
      "Ġgener": 2602,
      "Ġdisappo": 2603,
      "Ġbored": 2604,
      "ground": 2605,
      "ian": 2606,
      "Ġyelled": 2607,
      "Ġgas": 2608,
      "Ġseek": 2609,
      "Ġstood": 2610,
      "ned": 2611,
      "ital": 2612,
      "Ġseed": 2613,
      "Ġcarried": 2614,
      "ĠOn": 2615,
      "ĠLisa": 2616,
      "Ġvan": 2617,
      "Ġsnacks": 2618,
      "ork": 2619,
      "den": 2620,
      "Ġbreath": 2621,
      "dle": 2622,
      "Ġhosp": 2623,
      "Ġmeadow": 2624,
      "Ġlem": 2625,
      "Ġpuzzle": 2626,
      "Ġhospital": 2627,
      "Ġdrew": 2628,
      "Ġpizz": 2629,
      "To": 2630,
      "Ġline": 2631,
      "Sarah": 2632,
      "kin": 2633,
      "Ġkitten": 2634,
      "ĠTeddy": 2635,
      "Ġshore": 2636,
      "Ġgold": 2637,
      "Ġfear": 2638,
      "obby": 2639,
      "ĠRex": 2640,
      "Ġsuccess": 2641,
      "Ġscarf": 2642,
      "hin": 2643,
      "Ġdisappointed": 2644,
      "gly": 2645,
      "Ġcries": 2646,
      "Ġcloset": 2647,
      "Ġsighed": 2648,
      "Ġvase": 2649,
      "ustr": 2650,
      "Ġugly": 2651,
      "Ġship": 2652,
      "Where": 2653,
      "Ġwaves": 2654,
      "Ġprince": 2655,
      "Ġhidden": 2656,
      "Ġfeed": 2657,
      "Ġav": 2658,
      "Ġmessy": 2659,
      "vous": 2660,
      "aul": 2661,
      "ĠZ": 2662,
      "Ġburn": 2663,
      "Ġsparkly": 2664,
      "Ġblow": 2665,
      "Ġgroup": 2666,
      "iff": 2667,
      "Ġpri": 2668,
      "Ġmot": 2669,
      "Ġpoor": 2670,
      "Ġsandwich": 2671,
      "Ġsleepy": 2672,
      "Ġkissed": 2673,
      "Ġpowerful": 2674,
      "Ġeasy": 2675,
      "Ġcaterp": 2676,
      "Ġcaterpill": 2677,
      "itter": 2678,
      "ony": 2679,
      "Ġhours": 2680,
      "Ġpay": 2681,
      "oop": 2682,
      "Ġglass": 2683,
      "Ġgenerous": 2684,
      "Ġpizza": 2685,
      "Sorry": 2686,
      "ĠBe": 2687,
      "Ġpir": 2688,
      "ĠMum": 2689,
      "Ġbedroom": 2690,
      "Ġclass": 2691,
      "Ġstanding": 2692,
      "ĠEven": 2693,
      "Ġplants": 2694,
      "Ġtick": 2695,
      "There": 2696,
      "Ġjelly": 2697,
      "lower": 2698,
      "Ġknowing": 2699,
      "Ġfrustr": 2700,
      "Ġcrown": 2701,
      "Ġtears": 2702,
      "work": 2703,
      "Ġreturned": 2704,
      "Are": 2705,
      "Ġyourself": 2706,
      "Ġspoil": 2707,
      "Ġtest": 2708,
      "Ġwolf": 2709,
      "ĠTogether": 2710,
      "Ġgrumpy": 2711,
      "Ġsold": 2712,
      "Ġtent": 2713,
      "body": 2714,
      "Ġpin": 2715,
      "pack": 2716,
      "arl": 2717,
      "oof": 2718,
      "Ġfancy": 2719,
      "ote": 2720,
      "Ġtaught": 2721,
      "Ġrad": 2722,
      "Ġner": 2723,
      "Ġcirc": 2724,
      "ina": 2725,
      "Ġfig": 2726,
      "Ġflag": 2727,
      "Ġcaterpillar": 2728,
      "Ġpolite": 2729,
      "Ġboring": 2730,
      "Ġscr": 2731,
      "Ġthankful": 2732,
      "Ġhang": 2733,
      "Ġnervous": 2734,
      "Ġchew": 2735,
      "af": 2736,
      "Ġminutes": 2737,
      "Ġfinger": 2738,
      "Ġleg": 2739,
      "Ġdrop": 2740,
      "Ġgate": 2741,
      "ĠLeo": 2742,
      "Ġdetermined": 2743,
      "Ġpicks": 2744,
      "Ġfil": 2745,
      "ensive": 2746,
      "Ġfrustrated": 2747,
      "osaur": 2748,
      "'d": 2749,
      "issors": 2750,
      "Ġgets": 2751,
      "Ġexpensive": 2752,
      "mb": 2753,
      "Ġtwirl": 2754,
      "Ġdeer": 2755,
      "Ġesc": 2756,
      "Ġoften": 2757,
      "assed": 2758,
      "Ġlock": 2759,
      "Ġdancing": 2760,
      "Ġpassed": 2761,
      "ĠOK": 2762,
      "selves": 2763,
      "Ġclown": 2764,
      "Ġexcite": 2765,
      "Ġscissors": 2766,
      "Ġbridge": 2767,
      "ets": 2768,
      "Ġhur": 2769,
      "Their": 2770,
      "ual": 2771,
      "Ġreg": 2772,
      "Ġmysterious": 2773,
      "Ġdinosaur": 2774,
      "ates": 2775,
      "Ġchest": 2776,
      "light": 2777,
      "era": 2778,
      "illed": 2779,
      "Ġgathered": 2780,
      "Jane": 2781,
      "Ġcand": 2782,
      "Ġwagged": 2783,
      "iddle": 2784,
      "Ġsaved": 2785,
      "Ġmistake": 2786,
      "izzy": 2787,
      "Ġwander": 2788,
      "Ġcap": 2789,
      "usie": 2790,
      "Ġworking": 2791,
      "Ġstuff": 2792,
      "ĠPeter": 2793,
      "Who": 2794,
      "Ġpress": 2795,
      "Ġboss": 2796,
      "Ġanswered": 2797,
      "ĠBl": 2798,
      "Ġdogs": 2799,
      "Ġhopping": 2800,
      "Ġtrue": 2801,
      "Ġvegetables": 2802,
      "Ġknight": 2803,
      "ĠBr": 2804,
      "Ġpacked": 2805,
      "Ġexcitement": 2806,
      "Ġfruits": 2807,
      "Ġmir": 2808,
      "Ġlit": 2809,
      "Ġtape": 2810,
      "Ġones": 2811,
      "Ġlose": 2812,
      "que": 2813,
      "Ġmummy": 2814,
      "Ġgiggled": 2815,
      "ots": 2816,
      "Ġwis": 2817,
      "Ġflut": 2818,
      "Ġcomfortable": 2819,
      "Ġnumber": 2820,
      "Ġtaken": 2821,
      "ggs": 2822,
      "Ġdrum": 2823,
      "ond": 2824,
      "Ġeggs": 2825,
      "uce": 2826,
      "Ġruined": 2827,
      "Ġsweetie": 2828,
      "Ġspend": 2829,
      "Ġsmelly": 2830,
      "Ġcrawl": 2831,
      "Ġdrawing": 2832,
      "Ġwalks": 2833,
      "Ġlicked": 2834,
      "Ġbone": 2835,
      "Ġmiddle": 2836,
      "Ġasking": 2837,
      "Ġexam": 2838,
      "Ġwheel": 2839,
      "Ġmedic": 2840,
      "ror": 2841,
      "Ġqueen": 2842,
      "ecially": 2843,
      "Ġglue": 2844,
      "Ġmatch": 2845,
      "elp": 2846,
      "Ġbrush": 2847,
      "Ġdest": 2848,
      "Me": 2849,
      "Ġlazy": 2850,
      "Ġadd": 2851,
      "iness": 2852,
      "Ġclap": 2853,
      "Ġnod": 2854,
      "Ġchange": 2855,
      "pecially": 2856,
      "Ġespecially": 2857,
      "Ġfake": 2858,
      "Ġbathroom": 2859,
      "Ġmedicine": 2860,
      "Ġfeathers": 2861,
      "ĠIf": 2862,
      "ella": 2863,
      "ugar": 2864,
      "Ġcri": 2865,
      "Ġballs": 2866,
      "Ġbody": 2867,
      "Ġmov": 2868,
      "Ġgar": 2869,
      "Ġlying": 2870,
      "Ġroar": 2871,
      "ushed": 2872,
      "Ġmoving": 2873,
      "Ġsight": 2874,
      "Ġdecide": 2875,
      "Ġmoms": 2876,
      "Ġok": 2877,
      "Ġstones": 2878,
      "Ġsplashed": 2879,
      "Ġyours": 2880,
      "Ġweak": 2881,
      "Ġcalling": 2882,
      "Ġteam": 2883,
      "Ġtie": 2884,
      "Ġsugar": 2885,
      "Ġdistance": 2886,
      "Ġbake": 2887,
      "Ġfluffy": 2888,
      "Ġnoisy": 2889,
      "Ġhorn": 2890,
      "ĠNo": 2891,
      "ĠJohnny": 2892,
      "Ġlead": 2893,
      "Ġmirror": 2894,
      "Help": 2895,
      "Ġpray": 2896,
      "Ġpleased": 2897,
      "Ġlemon": 2898,
      "aser": 2899,
      "Ġdrank": 2900,
      "ha": 2901,
      "aged": 2902,
      "Ġshows": 2903,
      "Ġbecome": 2904,
      "Ġplayground": 2905,
      "hip": 2906,
      "Ġcovered": 2907,
      "Ġdisappeared": 2908,
      "Ġsell": 2909,
      "Ġweek": 2910,
      "uggest": 2911,
      "Ġsuggest": 2912,
      "Ġboard": 2913,
      "Ġrid": 2914,
      "Ġcage": 2915,
      "eez": 2916,
      "ating": 2917,
      "Ġclear": 2918,
      "Ġjuicy": 2919,
      "ination": 2920,
      "Ġrelax": 2921,
      "Ġcheck": 2922,
      "Ġglow": 2923,
      "Ġmic": 2924,
      "ory": 2925,
      "Ġwrote": 2926,
      "Ġincred": 2927,
      "Ġfis": 2928,
      "Ġrare": 2929,
      "Ġshoot": 2930,
      "Jimmy": 2931,
      "Ġquestions": 2932,
      "Ġneeds": 2933,
      "Ġsailed": 2934,
      "alous": 2935,
      "Ġtowel": 2936,
      "Ġeld": 2937,
      "Jill": 2938,
      "Ġjealous": 2939,
      "Ġboys": 2940,
      "ete": 2941,
      "Ġord": 2942,
      "Ġmotor": 2943,
      "Ġdig": 2944,
      "Ġcleaned": 2945,
      "imp": 2946,
      "Ġeager": 2947,
      "Ġed": 2948,
      "Ġfine": 2949,
      "Ġjoke": 2950,
      "yal": 2951,
      "Ġtwist": 2952,
      "Ġsoap": 2953,
      "ĠBlue": 2954,
      "ĠAt": 2955,
      "enny": 2956,
      "Ġskipped": 2957,
      "Ġind": 2958,
      "Ġhurts": 2959,
      "Ġcontent": 2960,
      "Ġtrucks": 2961,
      "Ġbanana": 2962,
      "Ġwhale": 2963,
      "Ġmeasure": 2964,
      "Ġcraw": 2965,
      "Ġincredible": 2966,
      "Sally": 2967,
      "Ġlamp": 2968,
      "Ġlaughs": 2969,
      "Ġbubbles": 2970,
      "Ġcrawled": 2971,
      "Ġfigure": 2972,
      "Ġfamous": 2973,
      "ĠKitty": 2974,
      "illi": 2975,
      "Ġgarage": 2976,
      "Ġrich": 2977,
      "Ġtag": 2978,
      "Ġext": 2979,
      "Ġdish": 2980,
      "Ġbranches": 2981,
      "umbled": 2982,
      "Ġtiger": 2983,
      "Ġfather": 2984,
      "Ġcover": 2985,
      "Ġunus": 2986,
      "ti": 2987,
      "Ġfrown": 2988,
      "Ġswan": 2989,
      "Ġword": 2990,
      "Ġeye": 2991,
      "Ġorganized": 2992,
      "Ġunusual": 2993,
      "Ġsword": 2994,
      "Ġwand": 2995,
      "ĠEnd": 2996,
      "Ġloyal": 2997,
      "imed": 2998,
      "Ġborrow": 2999,
      "Ġguess": 3000,
      "Ġhappening": 3001,
      "port": 3002,
      "Ġmap": 3003,
      "Ġlouder": 3004,
      "Ġhose": 3005,
      "ipp": 3006,
      "Ġcoins": 3007,
      "cil": 3008,
      "Ġfour": 3009,
      "Ġchase": 3010,
      "Ġpencil": 3011,
      "ery": 3012,
      "ipper": 3013,
      "Ġaw": 3014,
      "Ġsil": 3015,
      "Spot": 3016,
      "Ġthick": 3017,
      "ique": 3018,
      "Ġjewel": 3019,
      "Ġbarn": 3020,
      "Ġchicken": 3021,
      "gu": 3022,
      "Ġbalance": 3023,
      "fic": 3024,
      "Ġflash": 3025,
      "?\".": 3026,
      "asing": 3027,
      "Ġcompet": 3028,
      "Ġballoons": 3029,
      "lies": 3030,
      "cept": 3031,
      "Ġrealised": 3032,
      "Ġstraw": 3033,
      "Billy": 3034,
      "Ġmod": 3035,
      "Ġelderly": 3036,
      "Ġunique": 3037,
      "Ġlifted": 3038,
      "Ġextra": 3039,
      "Gra": 3040,
      "Ġfalls": 3041,
      "Ġoffered": 3042,
      "Well": 3043,
      "Ġdiscovered": 3044,
      "Ġpump": 3045,
      "keep": 3046,
      "Ġham": 3047,
      "Ġtoug": 3048,
      "Ġang": 3049,
      "Ġdiffic": 3050,
      "ately": 3051,
      "ĠLittle": 3052,
      "Here": 3053,
      "Ġbottom": 3054,
      "Ġknife": 3055,
      "Ġshake": 3056,
      "Ġhunt": 3057,
      "land": 3058,
      "ye": 3059,
      "Ġonce": 3060,
      "Ġcost": 3061,
      "Ġbatter": 3062,
      "ĠMark": 3063,
      "Ġgiving": 3064,
      "Sue": 3065,
      "Ġberries": 3066,
      "Ġkindness": 3067,
      "Ġdifficult": 3068,
      "Ġsmoke": 3069,
      "Ġcolourful": 3070,
      "Ġdolp": 3071,
      "How": 3072,
      "Ġhelps": 3073,
      "ĠSp": 3074,
      "Ġmighty": 3075,
      "Ġadded": 3076,
      "Ġbald": 3077,
      "fast": 3078,
      "Ġadventur": 3079,
      "Ġpointing": 3080,
      "Ġturt": 3081,
      "Ġweird": 3082,
      "Ġhats": 3083,
      "Ġwrapped": 3084,
      "Ġfool": 3085,
      "Ġbrothers": 3086,
      "ages": 3087,
      "Ġspun": 3088,
      "rag": 3089,
      "Ġboxes": 3090,
      "Ġbloom": 3091,
      "Ġdizzy": 3092,
      "Ġbreakfast": 3093,
      "olog": 3094,
      "Ġgrown": 3095,
      "ĠBrown": 3096,
      "erry": 3097,
      "Ġchoose": 3098,
      "Ġcompetit": 3099,
      "Ġadventurous": 3100,
      "Ġhero": 3101,
      "lla": 3102,
      "Ġdreamed": 3103,
      "Ġharder": 3104,
      "ym": 3105,
      "Ġmanaged": 3106,
      "alk": 3107,
      "Ġlog": 3108,
      "Ġears": 3109,
      "head": 3110,
      "Ġtough": 3111,
      "ouses": 3112,
      "ured": 3113,
      "Ġcircle": 3114,
      "Ġdepend": 3115,
      "uggled": 3116,
      "Ġpee": 3117,
      "Ġapolog": 3118,
      "ĠMy": 3119,
      "ject": 3120,
      "emo": 3121,
      "iv": 3122,
      "Joe": 3123,
      "keeper": 3124,
      "Ġnorm": 3125,
      "Ġscare": 3126,
      "Ġagainst": 3127,
      "Ġknows": 3128,
      "Ġbossy": 3129,
      "Ġskin": 3130,
      "Ġimpressed": 3131,
      "Ġshape": 3132,
      "Ġmarket": 3133,
      "Amy": 3134,
      "Ġloudly": 3135,
      "Ġedge": 3136,
      "Mummy": 3137,
      "Ġmelt": 3138,
      "ready": 3139,
      "Ġrough": 3140,
      "Ġrat": 3141,
      "Ġcab": 3142,
      "Ġhouses": 3143,
      "ĠSusie": 3144,
      "Ġwrap": 3145,
      "Ġrecord": 3146,
      "und": 3147,
      "Ġmeans": 3148,
      "Ġwagon": 3149,
      "Ġbirdie": 3150,
      "Ġfat": 3151,
      "Ġbelonged": 3152,
      "ilt": 3153,
      "Ġfright": 3154,
      "ĠBobby": 3155,
      "ature": 3156,
      "Ġsearch": 3157,
      "Ġcabin": 3158,
      "Ġbrilli": 3159,
      "Ġicy": 3160,
      "Ġlaw": 3161,
      "aw": 3162,
      "Ġcher": 3163,
      "Ġref": 3164,
      "Ġalready": 3165,
      "Ġslipped": 3166,
      "Ġnormal": 3167,
      "Ġlearning": 3168,
      "Ġfavour": 3169,
      "Ġgrace": 3170,
      "Ġcrayon": 3171,
      "Ġbuttons": 3172,
      "Ġgoat": 3173,
      "Ġenjoying": 3174,
      "Ġbrilliant": 3175,
      "Ġstrawber": 3176,
      "Ġspace": 3177,
      "Ġstubb": 3178,
      "Ġstri": 3179,
      "Ġjack": 3180,
      "Ġfoolish": 3181,
      "Ġshells": 3182,
      "Ġyog": 3183,
      "Ġfridge": 3184,
      "Ġtrunk": 3185,
      "Ġter": 3186,
      "Ġdreams": 3187,
      "Ġsafely": 3188,
      "pes": 3189,
      "Ġharm": 3190,
      "Ġfavourite": 3191,
      "apping": 3192,
      "Ġcudd": 3193,
      "Ġisland": 3194,
      "Ġoffice": 3195,
      "Ġmovie": 3196,
      "anged": 3197,
      "Ġguit": 3198,
      "Ġlibr": 3199,
      "Ġstubborn": 3200,
      "reen": 3201,
      "Ġcircles": 3202,
      "ĠToday": 3203,
      "edient": 3204,
      "Ġpainting": 3205,
      "Ġcro": 3206,
      "Ġhappiness": 3207,
      "laimed": 3208,
      "Ġsounded": 3209,
      "Ġclay": 3210,
      "Ġsaying": 3211,
      "Ġwalls": 3212,
      "omed": 3213,
      "Ġnotice": 3214,
      "Ġvalu": 3215,
      "ĠRose": 3216,
      "Ġturtle": 3217,
      "Ġbags": 3218,
      "Ġescape": 3219,
      "arth": 3220,
      "Ġexclaimed": 3221,
      "rage": 3222,
      "Ġpoured": 3223,
      "ache": 3224,
      "gy": 3225,
      "Ġstudy": 3226,
      "Ġwake": 3227,
      "ĠEllie": 3228,
      "Ġmixed": 3229,
      "Ġnicely": 3230,
      "Ġroof": 3231,
      "Ġcheerful": 3232,
      "Ġcrack": 3233,
      "Ġdependable": 3234,
      "Ġaccept": 3235,
      "ext": 3236,
      "Ġtoast": 3237,
      "Ġbitter": 3238,
      "Ġweal": 3239,
      "Ġobedient": 3240,
      "Ġshark": 3241,
      "irp": 3242,
      "ĠMrs": 3243,
      "ado": 3244,
      "Ġproudly": 3245,
      "Ġtimes": 3246,
      "Ġfier": 3247,
      "Ġrose": 3248,
      "Ġthu": 3249,
      "Ġsmaller": 3250,
      "Ġterri": 3251,
      "Ġunl": 3252,
      "Ġguitar": 3253,
      "Ġlean": 3254,
      "iable": 3255,
      "Ġinvited": 3256,
      "Ġdead": 3257,
      "corn": 3258,
      "Ġscrat": 3259,
      "Ġstove": 3260,
      "Ġdelicate": 3261,
      "Ġmagn": 3262,
      "Ġtunn": 3263,
      "Ġswe": 3264,
      "ention": 3265,
      "Ġwiped": 3266,
      "Ġcop": 3267,
      "Ġshadow": 3268,
      "Ġeng": 3269,
      "Ġlights": 3270,
      "Ġfierce": 3271,
      "Ġbushes": 3272,
      "Ġsuggested": 3273,
      "cient": 3274,
      "Ġlocked": 3275,
      "Ġspoiled": 3276,
      "Ġnosy": 3277,
      "Ġfingers": 3278,
      "Ġfrightened": 3279,
      "oppy": 3280,
      "wards": 3281,
      "sc": 3282,
      "Ġlow": 3283,
      "Ġcounted": 3284,
      "ĠYour": 3285,
      "Ġindepend": 3286,
      "kn": 3287,
      "Ġreliable": 3288,
      "Ġegg": 3289,
      "Ġcity": 3290,
      "Ġstronger": 3291,
      "Ġshowing": 3292,
      "Ġtools": 3293,
      "Ġancient": 3294,
      "Ġvaluable": 3295,
      "Ġstream": 3296,
      "Ġlab": 3297,
      "Ġuseful": 3298,
      "Ġkicked": 3299,
      "Ġholds": 3300,
      "Ġpil": 3301,
      "az": 3302,
      "ĠBu": 3303,
      "Ġow": 3304,
      "Ġstumbled": 3305,
      "Ġtummy": 3306,
      "Ġseem": 3307,
      "Ġhoop": 3308,
      "uth": 3309,
      "Ġdough": 3310,
      "orge": 3311,
      "ĠDucky": 3312,
      "Ġdesign": 3313,
      "Ġbump": 3314,
      "ola": 3315,
      "Ġfountain": 3316,
      "Ġfrag": 3317,
      "Ġexplored": 3318,
      "arry": 3319,
      "Ġrode": 3320,
      "Ġexcitedly": 3321,
      "ĠElla": 3322,
      "Ġpopcorn": 3323,
      "Ġjog": 3324,
      "Ġzip": 3325,
      "Ġjoined": 3326,
      "ipe": 3327,
      "Ġcleaning": 3328,
      "Ġcam": 3329,
      "Ġthemselves": 3330,
      "Ġresc": 3331,
      "Ġtele": 3332,
      "Ġspinning": 3333,
      "Ġmem": 3334,
      "Ġwhispered": 3335,
      "ither": 3336,
      "Ġbeak": 3337,
      "Ġindependent": 3338,
      "Ġparrot": 3339,
      "Ġpumpkin": 3340,
      "ÅĵLet": 3341,
      "ĠNemo": 3342,
      "Ġsteal": 3343,
      "Ġmarble": 3344,
      "Ġgem": 3345,
      "Ġabove": 3346,
      "na": 3347,
      "Ġhalf": 3348,
      "Ġjam": 3349,
      "Ġtwig": 3350,
      "Ġusing": 3351,
      "known": 3352,
      "Ġcone": 3353,
      "Ġthoughtful": 3354,
      "Ġkinds": 3355,
      "eeze": 3356,
      "Ġyarn": 3357,
      "Ġbuilt": 3358,
      "oot": 3359,
      "Ġgrandpa": 3360,
      "Ġreminded": 3361,
      "Ġsuccessful": 3362,
      "Ġacorn": 3363,
      "inal": 3364,
      "Ġsolve": 3365,
      "Ġsniff": 3366,
      "upid": 3367,
      "Ġflashlight": 3368,
      "Ġfre": 3369,
      "Ġbrightly": 3370,
      "Ġpractice": 3371,
      "ĠDan": 3372,
      "Ġways": 3373,
      "Ġdove": 3374,
      "illa": 3375,
      "Ġfragile": 3376,
      "Ġbrace": 3377,
      "amond": 3378,
      "Ġenorm": 3379,
      "Ġorig": 3380,
      "Ġenormous": 3381,
      "Ġbounce": 3382,
      "Ġtomato": 3383,
      "Ġunknown": 3384,
      "Ġclum": 3385,
      "Ġsunf": 3386,
      "Ġboats": 3387,
      "ĠFred": 3388,
      "Ġtank": 3389,
      "Ġadmired": 3390,
      "Ġdiamond": 3391,
      "Ġmetal": 3392,
      "Ġpainted": 3393,
      "umbers": 3394,
      "Ġrubb": 3395,
      "mbre": 3396,
      "eorge": 3397,
      "Ġplayful": 3398,
      "Ġarg": 3399,
      "Ġcheap": 3400,
      "Ġopens": 3401,
      "Ġumbre": 3402,
      "Ġenvel": 3403,
      "Ġaunt": 3404,
      "Ġstairs": 3405,
      "ĠPete": 3406,
      "Ġserious": 3407,
      "Ġstat": 3408,
      "Ġwashed": 3409,
      "Ġhelm": 3410,
      "Ġwealthy": 3411,
      "ĠU": 3412,
      "Ġstupid": 3413,
      "Ġseeds": 3414,
      "Ġshone": 3415,
      "Ġoriginal": 3416,
      "inary": 3417,
      "See": 3418,
      "Ġthirst": 3419,
      "Em": 3420,
      "vice": 3421,
      "Ġfinding": 3422,
      "Ġbeet": 3423,
      "Ġbees": 3424,
      "Ġenc": 3425,
      "Ġsalad": 3426,
      "anut": 3427,
      "Ġdoesn": 3428,
      "Ġbean": 3429,
      "Ġchanged": 3430,
      "Ġyet": 3431,
      "Ġjolly": 3432,
      "Ġsleeping": 3433,
      "Ġcostum": 3434,
      "Ġclumsy": 3435,
      "uring": 3436,
      "ict": 3437,
      "ilty": 3438,
      "Ġguilty": 3439,
      "Ġengine": 3440,
      "rn": 3441,
      "cod": 3442,
      "ray": 3443,
      "Ġdelighted": 3444,
      "ugged": 3445,
      "Ġpicking": 3446,
      "ĠBobo": 3447,
      "Ġpebble": 3448,
      "Ġstops": 3449,
      "Ġgoose": 3450,
      "ĠTweety": 3451,
      "llip": 3452,
      "llipop": 3453,
      "Ġpige": 3454,
      "dom": 3455,
      "Ġsuit": 3456,
      "Ġdust": 3457,
      "anger": 3458,
      "ines": 3459,
      "Ġallowed": 3460,
      "Ġdolphin": 3461,
      "ĠFin": 3462,
      "Ġmoder": 3463,
      "Ġhay": 3464,
      "Ġhairy": 3465,
      "Ġguard": 3466,
      "Ġangel": 3467,
      "Go": 3468,
      "!\".": 3469,
      "Ġlollipop": 3470,
      "Ġleaving": 3471,
      "ations": 3472,
      "Ġflute": 3473,
      "Ġhammer": 3474,
      "Ġraced": 3475,
      "Ġnumbers": 3476,
      "Ġshocked": 3477,
      "Ġpost": 3478,
      "Ġthirsty": 3479,
      "Ġcrocod": 3480,
      "Ġmis": 3481,
      "Ġclock": 3482,
      "Ġtelling": 3483,
      "isk": 3484,
      "Ġforth": 3485,
      "Ġwitch": 3486,
      "Ġcere": 3487,
      "Ġthose": 3488,
      "Ġdull": 3489,
      "Ġrub": 3490,
      "Ġhanded": 3491,
      "Ġtowers": 3492,
      "Ġchose": 3493,
      "het": 3494,
      "Ġarrow": 3495,
      "Ġmissing": 3496,
      "Ġpotato": 3497,
      "ience": 3498,
      "Ġson": 3499,
      "Ġterrible": 3500,
      "Ġknock": 3501,
      "Ġprint": 3502,
      "Ġpirate": 3503,
      "Ġrushed": 3504,
      "iew": 3505,
      "Ġnurse": 3506,
      "gest": 3507,
      "Ġsink": 3508,
      "ĠWhenever": 3509,
      "eezed": 3510,
      "Ġcompass": 3511,
      "Ġstamp": 3512,
      "ĠAlice": 3513,
      "oomy": 3514,
      "Ġcamera": 3515,
      "Ġmodern": 3516,
      "Ġcomb": 3517,
      "Ġcomput": 3518,
      "Ġpopular": 3519,
      "com": 3520,
      "Ġstack": 3521,
      "aghet": 3522,
      "aghetti": 3523,
      "Ġchar": 3524,
      "robe": 3525,
      "Ġprize": 3526,
      "Ġflex": 3527,
      "Ġview": 3528,
      "Ġsne": 3529,
      "Ġrubbed": 3530,
      "Ġpeanut": 3531,
      "Ġthunder": 3532,
      "Ġbiggest": 3533,
      "Ġdeliver": 3534,
      "Ġwire": 3535,
      "Ġbull": 3536,
      "Ġfresh": 3537,
      "Ġmask": 3538,
      "Ġending": 3539,
      "Ġpeeked": 3540,
      "io": 3541,
      "Ġtooth": 3542,
      "ĠKim": 3543,
      "Ġstage": 3544,
      "Ġdriving": 3545,
      "Ġsearching": 3546,
      "Ġing": 3547,
      "Ġspaghetti": 3548,
      "ĠSn": 3549,
      "ĠMike": 3550,
      "Ġpatter": 3551,
      "Ġcur": 3552,
      "Ġspilled": 3553,
      "Ġcareless": 3554,
      "Ġmarch": 3555,
      "fa": 3556,
      "Ġload": 3557,
      "Ġgasped": 3558,
      "Ġscatter": 3559,
      "Ġmole": 3560,
      "Ġrug": 3561,
      "Ġtruth": 3562,
      "Ġbeetle": 3563,
      "Ġprep": 3564,
      "Ġbarber": 3565,
      "Ġfriendship": 3566,
      "redient": 3567,
      "Ġingredient": 3568,
      "Ġsauce": 3569,
      "Ġshel": 3570,
      "Ġpengu": 3571,
      "Ġcarrying": 3572,
      "Ġdestro": 3573,
      "Ġgraceful": 3574,
      "Ġtem": 3575,
      "Ġumbrella": 3576,
      "Ġjug": 3577,
      "Ġtunnel": 3578,
      "Ġregular": 3579,
      "Ġpattern": 3580,
      "While": 3581,
      "Ġnature": 3582,
      "Ġcereal": 3583,
      "Ġpersist": 3584,
      "Ow": 3585,
      "Ġer": 3586,
      "Ġwing": 3587,
      "ision": 3588,
      "Ġenvelope": 3589,
      "Ġjacket": 3590,
      "Ġpant": 3591,
      "Ġslides": 3592,
      "Ġadvice": 3593,
      "Ġflexible": 3594,
      "time": 3595,
      "arsh": 3596,
      "Ġtrash": 3597,
      "ĠBella": 3598,
      "Ġwheels": 3599,
      "Ġavo": 3600,
      "Ġshiver": 3601,
      "Ġdreaming": 3602,
      "Ġdesk": 3603,
      "Ġscreen": 3604,
      "uddy": 3605,
      "Ġbracelet": 3606,
      "ĠMar": 3607,
      "Ġcompassion": 3608,
      "Ġearth": 3609,
      "Ġsquare": 3610,
      "Ġjumps": 3611,
      "ĠWhile": 3612,
      "Ġstatue": 3613,
      "Ġtied": 3614,
      "Ġliz": 3615,
      "Ġcrane": 3616,
      "Ġwindows": 3617,
      "Ġcrazy": 3618,
      "host": 3619,
      "Ġtorn": 3620,
      "ĠLook": 3621,
      "Ġreward": 3622,
      "ĠGrandpa": 3623,
      "Ġcreate": 3624,
      "Ġthinking": 3625,
      "awn": 3626,
      "Ġstranger": 3627,
      "Ġgrand": 3628,
      "ÅĵYes": 3629,
      "Ġpow": 3630,
      "Ġenv": 3631,
      "Ġscale": 3632,
      "Ġhandle": 3633,
      "Ġpiano": 3634,
      "Ġperm": 3635,
      "Ġimpressive": 3636,
      "Ġearly": 3637,
      "Ġcrocodile": 3638,
      "loo": 3639,
      "ĠHere": 3640,
      "Ġuncle": 3641,
      "iches": 3642,
      "Ġmel": 3643,
      "Ġmeal": 3644,
      "Ġpenny": 3645,
      "Ġghost": 3646,
      "ÅĵWhat": 3647,
      "ebra": 3648,
      "Ġtrap": 3649,
      "ement": 3650,
      "Ġcomputer": 3651,
      "Ġimagined": 3652,
      "Ġingredients": 3653,
      "ellig": 3654,
      "ibb": 3655,
      "ikes": 3656,
      "Ġbent": 3657,
      "Ġstickers": 3658,
      "illie": 3659,
      "Ġlibrary": 3660,
      "Ġintellig": 3661,
      "uper": 3662,
      "Ġwarned": 3663,
      "Ġspring": 3664,
      "Ġpup": 3665,
      "tter": 3666,
      "Ġnames": 3667,
      "Ġtravel": 3668,
      "Ġspoke": 3669,
      "âĤ¬âĢ": 3670,
      "Ġahead": 3671,
      "Ġorder": 3672,
      "Ġreading": 3673,
      "Ġpale": 3674,
      "Ġnote": 3675,
      "ÅĵIt": 3676,
      "ĠFr": 3677,
      "Ġcollar": 3678,
      "Ġpatch": 3679,
      "Ġparade": 3680,
      "Ġmailbox": 3681,
      "Ġzebra": 3682,
      "Ġsurf": 3683,
      "Ġgor": 3684,
      "Ġsofa": 3685,
      "Ġcelebrate": 3686,
      "Ġperform": 3687,
      "Ġgrowing": 3688,
      "aches": 3689,
      "Ġenth": 3690,
      "Ġsparkled": 3691,
      "ips": 3692,
      "Ġdiscover": 3693,
      "ophie": 3694,
      "Ġcompetitive": 3695,
      "Ġsunflower": 3696,
      "Ġsudden": 3697,
      "comfort": 3698,
      "aid": 3699,
      "Ġbeep": 3700,
      "ÅĵLetÃ¢": 3701,
      "Ġbutterflies": 3702,
      "Ġenthus": 3703,
      "Ġquestion": 3704,
      "Ġbadly": 3705,
      "Ġsorts": 3706,
      "Ġtask": 3707,
      "Ġpersistent": 3708,
      "orant": 3709,
      "Yay": 3710,
      "Ġsadly": 3711,
      "Ġhumble": 3712,
      "Ġlizard": 3713,
      "comfortable": 3714,
      "Ġhook": 3715,
      "Ġblueber": 3716,
      "Ġsandwiches": 3717,
      "Ġwaff": 3718,
      "Ġmay": 3719,
      "Ġcounting": 3720,
      "ĠPe": 3721,
      "Ġcomplet": 3722,
      "Ġfork": 3723,
      "Ġbeauty": 3724,
      "Ġuncomfortable": 3725,
      "Ġotter": 3726,
      "Ġpretending": 3727,
      "Ġobject": 3728,
      "Ġcards": 3729,
      "Ġdestroy": 3730,
      "Ġcryst": 3731,
      "Ġmush": 3732,
      "Ġyawn": 3733,
      "Ġmushroom": 3734,
      "Ġcooking": 3735,
      "Ġflour": 3736,
      "Ġrece": 3737,
      "Ġleash": 3738,
      "Ġolder": 3739,
      "Ġencou": 3740,
      "Ġcupboard": 3741,
      "Ġphot": 3742,
      "Ġshut": 3743,
      "ĠMummy": 3744,
      "ince": 3745,
      "Ġharmless": 3746,
      "Ġpigeon": 3747,
      "Ġnail": 3748,
      "Ġbandage": 3749,
      "ĠGive": 3750,
      "Ġhung": 3751,
      "Ġsnuggled": 3752,
      "Ġignorant": 3753,
      "Ġstarts": 3754,
      "Ġrules": 3755,
      "anda": 3756,
      "Ġnuts": 3757,
      "Ġstation": 3758,
      "ief": 3759,
      "Ġordinary": 3760,
      "Ġcurt": 3761,
      "Give": 3762,
      "coa": 3763,
      "Ġcharming": 3764,
      "Ġgifted": 3765,
      "ĠcouldnÃ¢": 3766,
      "lcano": 3767,
      "Ġcurtain": 3768,
      "Ġrefused": 3769,
      "ĠDave": 3770,
      "Ġallig": 3771,
      "Ġgloomy": 3772,
      "Ġchance": 3773,
      "Re": 3774,
      "Ġanx": 3775,
      "Ġspeed": 3776,
      "Ġmill": 3777,
      "Ġplaced": 3778,
      "ĠBear": 3779,
      "Ġletters": 3780,
      "Ġhunter": 3781,
      "bled": 3782,
      "Ġdug": 3783,
      "Ġneat": 3784,
      "Ġpasta": 3785,
      "ud": 3786,
      "Ġuniver": 3787,
      "cut": 3788,
      "cream": 3789,
      "Ġtrack": 3790,
      "Ġintelligent": 3791,
      "ses": 3792,
      "Ġcamp": 3793,
      "ric": 3794,
      "Ġvalue": 3795,
      "Ġcricket": 3796,
      "Ġanxious": 3797,
      "Ġhipp": 3798,
      "aff": 3799,
      "Ġclub": 3800,
      "Ġgorilla": 3801,
      "oe": 3802,
      "Ġbase": 3803,
      "Ġgir": 3804,
      "Ġtrick": 3805,
      "Ġtwirled": 3806,
      "ubby": 3807,
      "Ġchasing": 3808,
      "Ġtriang": 3809,
      "arian": 3810,
      "used": 3811,
      "gust": 3812,
      "Ġgum": 3813,
      "Ġvolcano": 3814,
      "Ġdrawer": 3815,
      "Ġshouts": 3816,
      "ĠToby": 3817,
      "Mary": 3818,
      "Ġsett": 3819,
      "Ġled": 3820,
      "Ġattract": 3821,
      "Ġdisgust": 3822,
      "Ġdeaf": 3823,
      "ĠWh": 3824,
      "Ġresist": 3825,
      "Ġcocoa": 3826,
      "ices": 3827,
      "Ġcompl": 3828,
      "Ġsoldier": 3829,
      "cu": 3830,
      "Ġshaking": 3831,
      "Ġpurse": 3832,
      "ĠPat": 3833,
      "htub": 3834,
      "Ġsuper": 3835,
      "Ġcreatures": 3836,
      "Ġscoot": 3837,
      "Ġsend": 3838,
      "Ġcarp": 3839,
      "Ġanywhere": 3840,
      "Ġcartoon": 3841,
      "Ġbathtub": 3842,
      "Ġshine": 3843,
      "Ġfearful": 3844,
      "ĠAre": 3845,
      "opus": 3846,
      "ctopus": 3847,
      "Ġsquash": 3848,
      "Ġtire": 3849,
      "Ġpony": 3850,
      "ĠSh": 3851,
      "ĠLee": 3852,
      "erable": 3853,
      "Ġdecorate": 3854,
      "Ġbri": 3855,
      "Ġcase": 3856,
      "aked": 3857,
      "Ġfu": 3858,
      "Ġlively": 3859,
      "Ġpants": 3860,
      "ĠSm": 3861,
      "Ġchubby": 3862,
      "Ġpepper": 3863,
      "Bye": 3864,
      "Ġbicy": 3865,
      "Ġmiserable": 3866,
      "Ġbounced": 3867,
      "Ġoctopus": 3868,
      "ceed": 3869,
      "stri": 3870,
      "Ġneedle": 3871,
      "Ġradio": 3872,
      "Ġalert": 3873,
      "urb": 3874,
      "Ġfilthy": 3875,
      "Ġcourage": 3876,
      "Ġimpat": 3877,
      "Ġhurry": 3878,
      "ĠWhere": 3879,
      "Ġbrighter": 3880,
      "Ġpressed": 3881,
      "Ġten": 3882,
      "Ġhelmet": 3883,
      "Ġpracticed": 3884,
      "Ġenvious": 3885,
      "Ġitself": 3886,
      "Ġsticker": 3887,
      "Ġpulls": 3888,
      "Ġdisturb": 3889,
      "Ġfort": 3890,
      "Ġcompassionate": 3891,
      "Ġrestless": 3892,
      "Ġmug": 3893,
      "If": 3894,
      "Ġsupport": 3895,
      "Ġfirework": 3896,
      "Ġtrump": 3897,
      "Ġimpatient": 3898,
      "iest": 3899,
      "Ġbackpack": 3900,
      "Benny": 3901,
      "Ġcarpet": 3902,
      "Ġgrabs": 3903,
      "Ġalligator": 3904,
      "Ġattic": 3905,
      "Ġsomewhere": 3906,
      "Ġdisgusting": 3907,
      "Ġcomet": 3908,
      "Ġwishes": 3909,
      "Ġtap": 3910,
      "Ġbarrel": 3911,
      "Ġener": 3912,
      "Alice": 3913,
      "noon": 3914,
      "ummer": 3915,
      "Ġafternoon": 3916,
      "Ġbarking": 3917,
      "Ġjet": 3918,
      "ĠLola": 3919,
      "ĠEventually": 3920,
      "Ġstretched": 3921,
      "Ġtur": 3922,
      "Ġbet": 3923,
      "Ġfive": 3924,
      "Ġscrew": 3925,
      "Ġsplit": 3926,
      "Ġjeep": 3927,
      "Ġhippo": 3928,
      "Ġskip": 3929,
      "ser": 3930,
      "aurant": 3931,
      "Ġsandbox": 3932,
      "ĠAl": 3933,
      "icop": 3934,
      "icopter": 3935,
      "Ġrestaurant": 3936,
      "gging": 3937,
      "Ġrespectful": 3938,
      "Ġspell": 3939,
      "Ġhelpless": 3940,
      "Ġvine": 3941,
      "Ġtray": 3942,
      "Ġthread": 3943,
      "llie": 3944,
      "Ġcows": 3945,
      "Ġgiggle": 3946,
      "ĠPolly": 3947,
      "Ġlid": 3948,
      "Ġcandle": 3949,
      "Ġattractive": 3950,
      "Ġsucceed": 3951,
      "Ġmagnet": 3952,
      "Ġants": 3953,
      "Ġexplain": 3954,
      "Ġhelicopter": 3955,
      "ĠBrownie": 3956,
      "Ġnobody": 3957,
      "Ġsteps": 3958,
      "ĠJoey": 3959,
      "Ġpaws": 3960,
      "Ġvide": 3961,
      "Ġanyway": 3962,
      "orable": 3963,
      "Ġthief": 3964,
      "Ġcats": 3965,
      "Ġtrumpet": 3966,
      "Ġsort": 3967,
      "Ġunpack": 3968,
      "Ġsalt": 3969,
      "Ġmelon": 3970,
      "Ġturkey": 3971,
      "Ġmeas": 3972,
      "Ġmonkeys": 3973,
      "Ġadmire": 3974,
      "Ġcooked": 3975,
      "Ġtemp": 3976,
      "enry": 3977,
      "Ġfinds": 3978,
      "Ġrepe": 3979,
      "Ġcrystal": 3980,
      "Ġpushes": 3981,
      "gn": 3982,
      "Ġpoem": 3983,
      "Ġnowhere": 3984,
      "Ġshield": 3985,
      "Ġpackage": 3986,
      "Ġpun": 3987,
      "stairs": 3988,
      "Ġelev": 3989,
      "ĠTweetie": 3990,
      "Ġstretch": 3991,
      "Ġshoe": 3992,
      "Ġstirred": 3993,
      "Ġostri": 3994,
      "Ġrice": 3995,
      "Ġvi": 3996,
      "Ġdess": 3997,
      "Ġlions": 3998,
      "ÅĵThat": 3999,
      "Ġorganize": 4000,
      "Ġsweater": 4001,
      "par": 4002,
      "Ġdistant": 4003,
      "heart": 4004,
      "Ġsoar": 4005,
      "aby": 4006,
      "Ġsepar": 4007,
      "Ġreco": 4008,
      "Ġelevator": 4009,
      "Ġadorable": 4010,
      "Ġraven": 4011,
      "ĠMandy": 4012,
      "ophone": 4013,
      "arlie": 4014,
      "Ġribb": 4015,
      "astic": 4016,
      "Ġmodest": 4017,
      "Ġbicycle": 4018,
      "Ġbreat": 4019,
      "ĠBuddy": 4020,
      "Ġfrowned": 4021,
      "Ġmath": 4022,
      "Ġfurther": 4023,
      "Ġharsh": 4024,
      "iskers": 4025,
      "Ġseal": 4026,
      "Ġsent": 4027,
      "ĠAlex": 4028,
      "Ġfireman": 4029,
      "cycle": 4030,
      "night": 4031,
      "ĠBill": 4032,
      "Ġhaircut": 4033,
      "shed": 4034,
      "Ġhuman": 4035,
      "Ġstared": 4036,
      "Ġholes": 4037,
      "Ġimpro": 4038,
      "Ġhedge": 4039,
      "Ġmuff": 4040,
      "Ġfle": 4041,
      "Ġquar": 4042,
      "Ġsle": 4043,
      "Ġhall": 4044,
      "Ġhappier": 4045,
      "inking": 4046,
      "Ġwallet": 4047,
      "Ġtroubled": 4048,
      "Daisy": 4049,
      "ĠCl": 4050,
      "Ġtrains": 4051,
      "Everyone": 4052,
      "Ġsock": 4053,
      "Ġleop": 4054,
      "Ġsize": 4055,
      "Ġbikes": 4056,
      "Ġlistening": 4057,
      "Ġswitch": 4058,
      "Ġtripped": 4059,
      "Ġcush": 4060,
      "ĠGeorge": 4061,
      "ebook": 4062,
      "Ġur": 4063,
      "Ġsheet": 4064,
      "stic": 4065,
      "Ġbears": 4066,
      "Ġnotebook": 4067,
      "come": 4068,
      "Ġjokes": 4069,
      "Ġdishes": 4070,
      "Ġchecked": 4071,
      "aroo": 4072,
      "angaroo": 4073,
      "Ġshakes": 4074,
      "Ġwheat": 4075,
      "ĠSmith": 4076,
      "Ġchain": 4077,
      "gie": 4078,
      "Ġsummer": 4079,
      "Ġeither": 4080,
      "Ġlip": 4081,
      "iastic": 4082,
      "ĠEverything": 4083,
      "Ġenthusiastic": 4084,
      "Ġchalk": 4085,
      "Ġexper": 4086,
      "Ġsilver": 4087,
      "ĠJerry": 4088,
      "Ġforgave": 4089,
      "Ġswinging": 4090,
      "Ġroared": 4091,
      "Ġmeat": 4092,
      "ccol": 4093,
      "Ġkangaroo": 4094,
      "Ġloop": 4095
    },
    "merges": [
      [
        "h",
        "e"
      ],
      [
        "Ġ",
        "t"
      ],
      [
        "Ġ",
        "a"
      ],
      [
        "Ġ",
        "s"
      ],
      [
        "Ġ",
        "w"
      ],
      [
        "n",
        "d"
      ],
      [
        "Ġt",
        "he"
      ],
      [
        "e",
        "d"
      ],
      [
        "Ġa",
        "nd"
      ],
      [
        "Ġt",
        "o"
      ],
      [
        "Ġ",
        "b"
      ],
      [
        "i",
        "n"
      ],
      [
        "Ġ",
        "h"
      ],
      [
        "r",
        "e"
      ],
      [
        "Ġw",
        "a"
      ],
      [
        "o",
        "u"
      ],
      [
        "Ġ",
        "f"
      ],
      [
        "i",
        "t"
      ],
      [
        "Ġ",
        "c"
      ],
      [
        "Ġ",
        "l"
      ],
      [
        "Ġ",
        "d"
      ],
      [
        "e",
        "r"
      ],
      [
        "Ġ",
        "he"
      ],
      [
        "Ġ",
        "m"
      ],
      [
        "Ġ",
        "p"
      ],
      [
        "Ġwa",
        "s"
      ],
      [
        "Ġ",
        "T"
      ],
      [
        "o",
        "m"
      ],
      [
        "Ġ",
        "o"
      ],
      [
        "a",
        "y"
      ],
      [
        "a",
        "r"
      ],
      [
        "i",
        "s"
      ],
      [
        "in",
        "g"
      ],
      [
        "i",
        "l"
      ],
      [
        "Ġ",
        "g"
      ],
      [
        "i",
        "d"
      ],
      [
        "a",
        "t"
      ],
      [
        "e",
        "n"
      ],
      [
        "Ġ",
        "n"
      ],
      [
        "Ġs",
        "a"
      ],
      [
        "ĠT",
        "he"
      ],
      [
        "Ġh",
        "a"
      ],
      [
        "Ġ",
        "S"
      ],
      [
        "a",
        "n"
      ],
      [
        "i",
        "m"
      ],
      [
        "o",
        "r"
      ],
      [
        "o",
        "n"
      ],
      [
        "Ġ",
        "it"
      ],
      [
        "Ġt",
        "h"
      ],
      [
        "l",
        "l"
      ],
      [
        "l",
        "e"
      ],
      [
        "Ġ",
        "H"
      ],
      [
        "o",
        "t"
      ],
      [
        "Ġhe",
        "r"
      ],
      [
        "e",
        "t"
      ],
      [
        "i",
        "r"
      ],
      [
        "ĠS",
        "he"
      ],
      [
        "e",
        "s"
      ],
      [
        "ĠH",
        "e"
      ],
      [
        "Ġ",
        "in"
      ],
      [
        "ĠThe",
        "y"
      ],
      [
        "v",
        "er"
      ],
      [
        "u",
        "t"
      ],
      [
        "o",
        "w"
      ],
      [
        "c",
        "k"
      ],
      [
        "Ġ",
        "y"
      ],
      [
        "Ġ",
        "e"
      ],
      [
        "Ġ",
        "u"
      ],
      [
        "l",
        "d"
      ],
      [
        "o",
        "o"
      ],
      [
        "Ġsa",
        "id"
      ],
      [
        "il",
        "y"
      ],
      [
        "i",
        "g"
      ],
      [
        "Ġ",
        "\""
      ],
      [
        "Ġ",
        "r"
      ],
      [
        "Ġb",
        "e"
      ],
      [
        "Ġ",
        "I"
      ],
      [
        "a",
        "m"
      ],
      [
        "Ġs",
        "t"
      ],
      [
        "k",
        "e"
      ],
      [
        "c",
        "e"
      ],
      [
        "v",
        "e"
      ],
      [
        "it",
        "h"
      ],
      [
        "L",
        "ily"
      ],
      [
        "p",
        "p"
      ],
      [
        "Ġs",
        "he"
      ],
      [
        "Ġw",
        "ith"
      ],
      [
        "Ġy",
        "ou"
      ],
      [
        "Ġo",
        "n"
      ],
      [
        "O",
        "n"
      ],
      [
        "k",
        "ed"
      ],
      [
        "r",
        "i"
      ],
      [
        "Ġo",
        "f"
      ],
      [
        "Ġp",
        "l"
      ],
      [
        "n",
        "t"
      ],
      [
        "a",
        "d"
      ],
      [
        "Ġh",
        "is"
      ],
      [
        "Ġs",
        "o"
      ],
      [
        "ver",
        "y"
      ],
      [
        "Ġd",
        "ay"
      ],
      [
        "Ġth",
        "at"
      ],
      [
        "Ġ",
        "Lily"
      ],
      [
        "Ġpl",
        "ay"
      ],
      [
        "Ġu",
        "p"
      ],
      [
        "Ġthe",
        "y"
      ],
      [
        "Ġha",
        "d"
      ],
      [
        "Ġw",
        "e"
      ],
      [
        "s",
        "t"
      ],
      [
        "Ġm",
        "om"
      ],
      [
        "Ġ",
        "B"
      ],
      [
        "Ġf",
        "or"
      ],
      [
        "e",
        "l"
      ],
      [
        "u",
        "n"
      ],
      [
        "'",
        "s"
      ],
      [
        "ou",
        "ld"
      ],
      [
        "Ġl",
        "i"
      ],
      [
        "m",
        "y"
      ],
      [
        "T",
        "he"
      ],
      [
        "c",
        "h"
      ],
      [
        "Ġwa",
        "nt"
      ],
      [
        "Ġha",
        "pp"
      ],
      [
        "en",
        "t"
      ],
      [
        "Ġs",
        "h"
      ],
      [
        "it",
        "t"
      ],
      [
        "he",
        "r"
      ],
      [
        "ou",
        "t"
      ],
      [
        "Ġn",
        "ot"
      ],
      [
        "Ġd",
        "o"
      ],
      [
        "om",
        "e"
      ],
      [
        "s",
        "e"
      ],
      [
        "Ġ",
        "very"
      ],
      [
        "e",
        "nd"
      ],
      [
        "l",
        "y"
      ],
      [
        "a",
        "ll"
      ],
      [
        "Ġw",
        "h"
      ],
      [
        "ou",
        "nd"
      ],
      [
        "Ġ",
        "k"
      ],
      [
        "im",
        "e"
      ],
      [
        "itt",
        "le"
      ],
      [
        "Ġ",
        "M"
      ],
      [
        "Ġ",
        "is"
      ],
      [
        "Ġt",
        "ime"
      ],
      [
        "a",
        "l"
      ],
      [
        "Ġn",
        "e"
      ],
      [
        "Ġl",
        "ittle"
      ],
      [
        "h",
        "t"
      ],
      [
        "Ġthe",
        "re"
      ],
      [
        "Ġb",
        "ig"
      ],
      [
        "Ġhapp",
        "y"
      ],
      [
        "ĠI",
        "t"
      ],
      [
        "Ġ",
        "re"
      ],
      [
        "Ġs",
        "m"
      ],
      [
        "Ġb",
        "ut"
      ],
      [
        ".",
        "\""
      ],
      [
        "r",
        "y"
      ],
      [
        "Ġsa",
        "w"
      ],
      [
        "Ġa",
        "n"
      ],
      [
        "r",
        "a"
      ],
      [
        "ri",
        "end"
      ],
      [
        "Ġf",
        "riend"
      ],
      [
        "Ġ",
        "Ċ"
      ],
      [
        "Ġa",
        "s"
      ],
      [
        "a",
        "ck"
      ],
      [
        "a",
        "ke"
      ],
      [
        "id",
        "e"
      ],
      [
        "On",
        "e"
      ],
      [
        "!",
        "\""
      ],
      [
        "'",
        "t"
      ],
      [
        "u",
        "g"
      ],
      [
        "Ġl",
        "oo"
      ],
      [
        "Ġwe",
        "re"
      ],
      [
        "t",
        "er"
      ],
      [
        "v",
        "ed"
      ],
      [
        "Ġl",
        "o"
      ],
      [
        "o",
        "re"
      ],
      [
        "On",
        "ce"
      ],
      [
        "Ġs",
        "e"
      ],
      [
        "Ġto",
        "o"
      ],
      [
        "Ġa",
        "re"
      ],
      [
        "Ġh",
        "im"
      ],
      [
        "Ġb",
        "o"
      ],
      [
        "Ġg",
        "o"
      ],
      [
        "e",
        "c"
      ],
      [
        "ĠT",
        "im"
      ],
      [
        "Ġ",
        "j"
      ],
      [
        "il",
        "l"
      ],
      [
        "ar",
        "d"
      ],
      [
        "Ġwant",
        "ed"
      ],
      [
        "Ġthe",
        "m"
      ],
      [
        "ir",
        "l"
      ],
      [
        "Ġthe",
        "ir"
      ],
      [
        "Ġup",
        "on"
      ],
      [
        "Ġa",
        "t"
      ],
      [
        "Ġg",
        "irl"
      ],
      [
        "Ġ",
        "out"
      ],
      [
        "Ġd",
        "id"
      ],
      [
        "u",
        "r"
      ],
      [
        "i",
        "nd"
      ],
      [
        "ay",
        "s"
      ],
      [
        "Ġ",
        "A"
      ],
      [
        "f",
        "u"
      ],
      [
        "Ġs",
        "p"
      ],
      [
        "Ġha",
        "ve"
      ],
      [
        "Ġsm",
        "il"
      ],
      [
        "Ġc",
        "ould"
      ],
      [
        "he",
        "n"
      ],
      [
        "a",
        "in"
      ],
      [
        "ĠB",
        "en"
      ],
      [
        "he",
        "d"
      ],
      [
        "ar",
        "t"
      ],
      [
        "Ġc",
        "an"
      ],
      [
        "r",
        "om"
      ],
      [
        "Ġw",
        "ent"
      ],
      [
        "Ġe",
        "x"
      ],
      [
        "i",
        "c"
      ],
      [
        "Ġa",
        "r"
      ],
      [
        "?",
        "\""
      ],
      [
        "l",
        "p"
      ],
      [
        "oo",
        "d"
      ],
      [
        "Ġfriend",
        "s"
      ],
      [
        "fu",
        "l"
      ],
      [
        "Ġn",
        "am"
      ],
      [
        "Ġk",
        "n"
      ],
      [
        "h",
        "ing"
      ],
      [
        "Ġ",
        "J"
      ],
      [
        "ig",
        "ht"
      ],
      [
        "Ġhe",
        "lp"
      ],
      [
        "Ġa",
        "ll"
      ],
      [
        "Y",
        "ou"
      ],
      [
        "u",
        "m"
      ],
      [
        "ar",
        "k"
      ],
      [
        "on",
        "e"
      ],
      [
        "Ġb",
        "ack"
      ],
      [
        "ĠT",
        "om"
      ],
      [
        "Ġf",
        "un"
      ],
      [
        "Ġc",
        "l"
      ],
      [
        "Ġn",
        "o"
      ],
      [
        "a",
        "re"
      ],
      [
        "Ġl",
        "e"
      ],
      [
        "o",
        "p"
      ],
      [
        "Ġs",
        "c"
      ],
      [
        "Ġnam",
        "ed"
      ],
      [
        "Ġa",
        "l"
      ],
      [
        "el",
        "t"
      ],
      [
        "Ġm",
        "an"
      ],
      [
        "Ġto",
        "y"
      ],
      [
        "Ġlo",
        "ved"
      ],
      [
        "Ġsmil",
        "ed"
      ],
      [
        "ou",
        "g"
      ],
      [
        "Ġli",
        "ke"
      ],
      [
        "Ġ",
        "One"
      ],
      [
        "s",
        "ide"
      ],
      [
        "i",
        "ck"
      ],
      [
        "Ġf",
        "elt"
      ],
      [
        "Ġas",
        "ked"
      ],
      [
        "Ġse",
        "e"
      ],
      [
        "Ġm",
        "e"
      ],
      [
        "Ġf",
        "e"
      ],
      [
        "Ġloo",
        "ked"
      ],
      [
        "Ġs",
        "ome"
      ],
      [
        "am",
        "e"
      ],
      [
        "Ġ",
        "W"
      ],
      [
        "Ġr",
        "o"
      ],
      [
        "ĠTim",
        "my"
      ],
      [
        "Ġar",
        "ound"
      ],
      [
        "om",
        "et"
      ],
      [
        "Ġb",
        "r"
      ],
      [
        "u",
        "re"
      ],
      [
        "Ġb",
        "ir"
      ],
      [
        "i",
        "ce"
      ],
      [
        "g",
        "et"
      ],
      [
        "Ġw",
        "ould"
      ],
      [
        "Ġbo",
        "y"
      ],
      [
        "on",
        "g"
      ],
      [
        "Ġst",
        "art"
      ],
      [
        "a",
        "s"
      ],
      [
        "Ġbir",
        "d"
      ],
      [
        "w",
        "ay"
      ],
      [
        "Ġs",
        "omet"
      ],
      [
        ",",
        "\""
      ],
      [
        "Ġf",
        "a"
      ],
      [
        "Ġ",
        "You"
      ],
      [
        "Ġm",
        "ake"
      ],
      [
        "Ġs",
        "ays"
      ],
      [
        "ing",
        "s"
      ],
      [
        "Ġa",
        "g"
      ],
      [
        "ad",
        "e"
      ],
      [
        "Ġwh",
        "at"
      ],
      [
        "d",
        "d"
      ],
      [
        "Ġw",
        "or"
      ],
      [
        "ĠB",
        "ut"
      ],
      [
        "k",
        "ing"
      ],
      [
        "Ġr",
        "an"
      ],
      [
        "ow",
        "n"
      ],
      [
        "Ġa",
        "way"
      ],
      [
        "get",
        "her"
      ],
      [
        "Ã",
        "¢"
      ],
      [
        "â",
        "Ĥ"
      ],
      [
        "âĤ",
        "¬"
      ],
      [
        "Ġt",
        "re"
      ],
      [
        "ar",
        "ed"
      ],
      [
        "i",
        "e"
      ],
      [
        "a",
        "g"
      ],
      [
        "ou",
        "d"
      ],
      [
        "Ġc",
        "ar"
      ],
      [
        "Ġm",
        "ade"
      ],
      [
        "Ġstart",
        "ed"
      ],
      [
        "i",
        "f"
      ],
      [
        "Ġto",
        "gether"
      ],
      [
        "t",
        "her"
      ],
      [
        "Ġp",
        "ark"
      ],
      [
        "Ġc",
        "o"
      ],
      [
        "Ġsomet",
        "hing"
      ],
      [
        "Ġsa",
        "d"
      ],
      [
        "Ġo",
        "ther"
      ],
      [
        "it",
        "ed"
      ],
      [
        "Ġp",
        "ut"
      ],
      [
        "Ġne",
        "w"
      ],
      [
        "Ġf",
        "rom"
      ],
      [
        "oo",
        "k"
      ],
      [
        "e",
        "ll"
      ],
      [
        "Ġh",
        "ug"
      ],
      [
        "Ġ",
        "L"
      ],
      [
        "a",
        "ch"
      ],
      [
        "Ġag",
        "ain"
      ],
      [
        "b",
        "le"
      ],
      [
        "Ġp",
        "r"
      ],
      [
        "Ġg",
        "ood"
      ],
      [
        "Ġex",
        "c"
      ],
      [
        "Ġl",
        "a"
      ],
      [
        "Ġm",
        "u"
      ],
      [
        "Ġh",
        "ome"
      ],
      [
        "s",
        "s"
      ],
      [
        "Ġf",
        "l"
      ],
      [
        "ri",
        "ed"
      ],
      [
        "e",
        "p"
      ],
      [
        "Ġw",
        "hen"
      ],
      [
        "Ġwh",
        "o"
      ],
      [
        "Ġc",
        "h"
      ],
      [
        "es",
        "t"
      ],
      [
        "Ġthe",
        "n"
      ],
      [
        "Ġf",
        "ound"
      ],
      [
        "h",
        "at"
      ],
      [
        "Ġd",
        "ec"
      ],
      [
        "pp",
        "ed"
      ],
      [
        "n",
        "n"
      ],
      [
        "Ġg",
        "et"
      ],
      [
        "Ġplay",
        "ing"
      ],
      [
        "Ġwa",
        "l"
      ],
      [
        "q",
        "u"
      ],
      [
        "Ġs",
        "w"
      ],
      [
        "oug",
        "ht"
      ],
      [
        "Ġli",
        "ked"
      ],
      [
        "u",
        "ck"
      ],
      [
        "Ġth",
        "ings"
      ],
      [
        "p",
        "l"
      ],
      [
        "all",
        "y"
      ],
      [
        "Ġ",
        "E"
      ],
      [
        "ou",
        "s"
      ],
      [
        "Ġg",
        "ot"
      ],
      [
        "Ġb",
        "l"
      ],
      [
        "r",
        "o"
      ],
      [
        "ar",
        "a"
      ],
      [
        "Ġyou",
        "r"
      ],
      [
        "ĠM",
        "om"
      ],
      [
        "Ġexc",
        "ited"
      ],
      [
        "Ġdo",
        "g"
      ],
      [
        "a",
        "ve"
      ],
      [
        "Ġc",
        "ame"
      ],
      [
        "Ġdec",
        "id"
      ],
      [
        "Ġe",
        "very"
      ],
      [
        "a",
        "x"
      ],
      [
        "Ġdecid",
        "ed"
      ],
      [
        "nn",
        "a"
      ],
      [
        "Ġ",
        "D"
      ],
      [
        "Ġsc",
        "ared"
      ],
      [
        "The",
        "y"
      ],
      [
        "Ġ",
        "v"
      ],
      [
        "Ġd",
        "own"
      ],
      [
        "u",
        "st"
      ],
      [
        "Ġon",
        "e"
      ],
      [
        "Ġc",
        "are"
      ],
      [
        "Ġf",
        "ind"
      ],
      [
        "ou",
        "se"
      ],
      [
        "is",
        "t"
      ],
      [
        "a",
        "p"
      ],
      [
        "Ġbe",
        "c"
      ],
      [
        "n",
        "y"
      ],
      [
        "u",
        "e"
      ],
      [
        "Ġth",
        "an"
      ],
      [
        "Ġm",
        "y"
      ],
      [
        "Ġw",
        "ill"
      ],
      [
        "Ġfe",
        "el"
      ],
      [
        "Ġd",
        "ad"
      ],
      [
        "Ġa",
        "b"
      ],
      [
        "ar",
        "n"
      ],
      [
        "Ġloo",
        "k"
      ],
      [
        "ou",
        "r"
      ],
      [
        "u",
        "dd"
      ],
      [
        "Ġg",
        "r"
      ],
      [
        "er",
        "s"
      ],
      [
        "Ġtoy",
        "s"
      ],
      [
        "Ġg",
        "ra"
      ],
      [
        "u",
        "s"
      ],
      [
        "es",
        "s"
      ],
      [
        "Ġp",
        "o"
      ],
      [
        "Ġ",
        "ke"
      ],
      [
        "Ġdid",
        "n"
      ],
      [
        "w",
        "ays"
      ],
      [
        "nd",
        "er"
      ],
      [
        "Ġtoo",
        "k"
      ],
      [
        "f",
        "e"
      ],
      [
        "Ġb",
        "all"
      ],
      [
        "Ġab",
        "out"
      ],
      [
        "ĠS",
        "am"
      ],
      [
        "Ġal",
        "ways"
      ],
      [
        "an",
        "t"
      ],
      [
        "Ġmom",
        "my"
      ],
      [
        "Ġl",
        "ot"
      ],
      [
        "Ġkn",
        "e"
      ],
      [
        "b",
        "b"
      ],
      [
        "Ġtre",
        "e"
      ],
      [
        "is",
        "e"
      ],
      [
        "Ġ",
        "F"
      ],
      [
        "Ġout",
        "side"
      ],
      [
        "Ġt",
        "a"
      ],
      [
        "Ġth",
        "ought"
      ],
      [
        "Ġle",
        "arn"
      ],
      [
        "it",
        "e"
      ],
      [
        "Ġm",
        "ore"
      ],
      [
        "re",
        "t"
      ],
      [
        "en",
        "ed"
      ],
      [
        "Ġh",
        "o"
      ],
      [
        "Ġkn",
        "ow"
      ],
      [
        "Ġs",
        "or"
      ],
      [
        "c",
        "hed"
      ],
      [
        "g",
        "ed"
      ],
      [
        "ec",
        "i"
      ],
      [
        "Ġin",
        "t"
      ],
      [
        "Ġc",
        "at"
      ],
      [
        "i",
        "a"
      ],
      [
        "Ġo",
        "ld"
      ],
      [
        "Ġla",
        "ug"
      ],
      [
        "Ġt",
        "ake"
      ],
      [
        "i",
        "ve"
      ],
      [
        "ĠM",
        "ax"
      ],
      [
        "Ġkne",
        "w"
      ],
      [
        "Ġan",
        "y"
      ],
      [
        "Ġsp",
        "eci"
      ],
      [
        "Ġspeci",
        "al"
      ],
      [
        "Ġp",
        "e"
      ],
      [
        "Ġsor",
        "ry"
      ],
      [
        "udd",
        "en"
      ],
      [
        "f",
        "ter"
      ],
      [
        "Ġh",
        "ow"
      ],
      [
        "B",
        "ut"
      ],
      [
        "in",
        "k"
      ],
      [
        "Ġt",
        "r"
      ],
      [
        "Ġr",
        "un"
      ],
      [
        "Ġsh",
        "ow"
      ],
      [
        "a",
        "nd"
      ],
      [
        "is",
        "h"
      ],
      [
        "udden",
        "ly"
      ],
      [
        "Ġs",
        "l"
      ],
      [
        "a",
        "u"
      ],
      [
        "Ġmu",
        "ch"
      ],
      [
        "Ġo",
        "r"
      ],
      [
        "Ġha",
        "nd"
      ],
      [
        "m",
        "a"
      ],
      [
        "Ġt",
        "w"
      ],
      [
        "Ġh",
        "ouse"
      ],
      [
        "Ġo",
        "p"
      ],
      [
        "Ġm",
        "o"
      ],
      [
        "Ġwa",
        "ter"
      ],
      [
        "Ġt",
        "ried"
      ],
      [
        "T",
        "om"
      ],
      [
        "v",
        "en"
      ],
      [
        "an",
        "k"
      ],
      [
        "Ġs",
        "k"
      ],
      [
        "at",
        "e"
      ],
      [
        "Ġcl",
        "o"
      ],
      [
        "Ġint",
        "o"
      ],
      [
        "Ġs",
        "un"
      ],
      [
        "Ġin",
        "side"
      ],
      [
        "Ġto",
        "ld"
      ],
      [
        "um",
        "p"
      ],
      [
        "ĠW",
        "e"
      ],
      [
        "ĠS",
        "ara"
      ],
      [
        "ĠA",
        "nna"
      ],
      [
        "Ġg",
        "ave"
      ],
      [
        "Ġe",
        "ach"
      ],
      [
        "t",
        "y"
      ],
      [
        "Ġro",
        "om"
      ],
      [
        "Ġe",
        "at"
      ],
      [
        "Ġpr",
        "oud"
      ],
      [
        "Ġ",
        "if"
      ],
      [
        "Ġhe",
        "ard"
      ],
      [
        "Ġ",
        "qu"
      ],
      [
        "Ġth",
        "is"
      ],
      [
        "Ġo",
        "ver"
      ],
      [
        "Ġ",
        "en"
      ],
      [
        "a",
        "ce"
      ],
      [
        "Ġp",
        "ret"
      ],
      [
        "ot",
        "her"
      ],
      [
        "Ġcould",
        "n"
      ],
      [
        "Ġne",
        "ver"
      ],
      [
        "a",
        "k"
      ],
      [
        "d",
        "y"
      ],
      [
        "Ġplay",
        "ed"
      ],
      [
        "M",
        "om"
      ],
      [
        "au",
        "se"
      ],
      [
        "Ġp",
        "ick"
      ],
      [
        "b",
        "y"
      ],
      [
        "i",
        "on"
      ],
      [
        "Ġhug",
        "ged"
      ],
      [
        "et",
        "ter"
      ],
      [
        "ĠE",
        "very"
      ],
      [
        "he",
        "re"
      ],
      [
        "g",
        "e"
      ],
      [
        "Ġg",
        "re"
      ],
      [
        "Ġc",
        "om"
      ],
      [
        "Ġex",
        "pl"
      ],
      [
        "Ġj",
        "ust"
      ],
      [
        "Ġn",
        "ice"
      ],
      [
        "Ġman",
        "y"
      ],
      [
        "Ġbo",
        "x"
      ],
      [
        "Ġne",
        "ed"
      ],
      [
        "ot",
        "h"
      ],
      [
        "Ġwa",
        "t"
      ],
      [
        "'",
        "m"
      ],
      [
        "Ġof",
        "f"
      ],
      [
        "s",
        "ed"
      ],
      [
        "Ġst",
        "r"
      ],
      [
        "Ġbec",
        "ause"
      ],
      [
        "g",
        "ry"
      ],
      [
        "il",
        "e"
      ],
      [
        "Ġsm",
        "all"
      ],
      [
        "Ġb",
        "u"
      ],
      [
        "Ġf",
        "o"
      ],
      [
        "v",
        "ing"
      ],
      [
        "i",
        "z"
      ],
      [
        "in",
        "e"
      ],
      [
        "Ġs",
        "n"
      ],
      [
        "Ġl",
        "ong"
      ],
      [
        "im",
        "al"
      ],
      [
        "Ġj",
        "o"
      ],
      [
        "Ġan",
        "imal"
      ],
      [
        "ur",
        "t"
      ],
      [
        "Ġbe",
        "ar"
      ],
      [
        "Ġt",
        "ry"
      ],
      [
        "or",
        "t"
      ],
      [
        "u",
        "c"
      ],
      [
        "Ġlearn",
        "ed"
      ],
      [
        "oug",
        "h"
      ],
      [
        "Ġlo",
        "ve"
      ],
      [
        "ĠM",
        "ia"
      ],
      [
        "s",
        "el"
      ],
      [
        "Ġu",
        "nt"
      ],
      [
        "il",
        "d"
      ],
      [
        "Ġk",
        "ind"
      ],
      [
        "Ġunt",
        "il"
      ],
      [
        "f",
        "t"
      ],
      [
        "Ġb",
        "etter"
      ],
      [
        "Ġfl",
        "ow"
      ],
      [
        "Ġs",
        "ay"
      ],
      [
        "e",
        "m"
      ],
      [
        "Ġd",
        "on"
      ],
      [
        "ĠA",
        "nd"
      ],
      [
        "ĠJ",
        "ack"
      ],
      [
        "Ġ",
        "im"
      ],
      [
        "ur",
        "n"
      ],
      [
        "H",
        "e"
      ],
      [
        "Ġc",
        "le"
      ],
      [
        "v",
        "es"
      ],
      [
        "Ġp",
        "u"
      ],
      [
        "Ġe",
        "nd"
      ],
      [
        "Ġb",
        "est"
      ],
      [
        "Y",
        "es"
      ],
      [
        "Ġc",
        "all"
      ],
      [
        "ad",
        "y"
      ],
      [
        "re",
        "am"
      ],
      [
        "ar",
        "s"
      ],
      [
        "Ġcare",
        "ful"
      ],
      [
        "Ġfa",
        "st"
      ],
      [
        "ur",
        "p"
      ],
      [
        "Ġ",
        "C"
      ],
      [
        "a",
        "ut"
      ],
      [
        "Ġa",
        "d"
      ],
      [
        "T",
        "h"
      ],
      [
        "ard",
        "en"
      ],
      [
        "v",
        "ent"
      ],
      [
        "Ġg",
        "arden"
      ],
      [
        "Ġf",
        "i"
      ],
      [
        "b",
        "er"
      ],
      [
        "Ġt",
        "e"
      ],
      [
        "i",
        "es"
      ],
      [
        "a",
        "se"
      ],
      [
        "Ġl",
        "oud"
      ],
      [
        "ĠJ",
        "o"
      ],
      [
        "Ġb",
        "ra"
      ],
      [
        "Ġbe",
        "aut"
      ],
      [
        "Ġj",
        "ump"
      ],
      [
        "Ġc",
        "he"
      ],
      [
        "Ġthan",
        "ked"
      ],
      [
        "Ġsk",
        "y"
      ],
      [
        "Ġlaug",
        "hed"
      ],
      [
        "ĠH",
        "er"
      ],
      [
        "Ġb",
        "y"
      ],
      [
        "p",
        "t"
      ],
      [
        "Ġe",
        "ven"
      ],
      [
        "I",
        "t"
      ],
      [
        "in",
        "y"
      ],
      [
        "Ġl",
        "ist"
      ],
      [
        "ĠS",
        "o"
      ],
      [
        "ll",
        "y"
      ],
      [
        "Ġg",
        "l"
      ],
      [
        "sel",
        "f"
      ],
      [
        "w",
        "n"
      ],
      [
        "Ġh",
        "urt"
      ],
      [
        "Ġc",
        "ome"
      ],
      [
        "Ġh",
        "ard"
      ],
      [
        "Ġst",
        "ill"
      ],
      [
        "Ġanimal",
        "s"
      ],
      [
        "Ġbeaut",
        "i"
      ],
      [
        "Å",
        "ĵ"
      ],
      [
        "le",
        "w"
      ],
      [
        "Ġbeauti",
        "ful"
      ],
      [
        "Ġw",
        "o"
      ],
      [
        "Ġwa",
        "y"
      ],
      [
        "Ġu",
        "nder"
      ],
      [
        "Ġf",
        "am"
      ],
      [
        "Ġlot",
        "s"
      ],
      [
        "b",
        "e"
      ],
      [
        "Ġl",
        "et"
      ],
      [
        "he",
        "s"
      ],
      [
        "Ġr",
        "a"
      ],
      [
        "ĠThe",
        "n"
      ],
      [
        "Ġb",
        "ad"
      ],
      [
        "ec",
        "t"
      ],
      [
        "ĠF",
        "rom"
      ],
      [
        "c",
        "t"
      ],
      [
        "Ġsa",
        "fe"
      ],
      [
        "o",
        "ck"
      ],
      [
        "n",
        "ing"
      ],
      [
        "Ġb",
        "oth"
      ],
      [
        "oo",
        "l"
      ],
      [
        "Ġst",
        "ay"
      ],
      [
        "Ġc",
        "u"
      ],
      [
        "Ġco",
        "l"
      ],
      [
        "k",
        "ay"
      ],
      [
        "Ġb",
        "ook"
      ],
      [
        "ĠH",
        "is"
      ],
      [
        "a",
        "st"
      ],
      [
        "op",
        "le"
      ],
      [
        "Ġan",
        "gry"
      ],
      [
        "Ġre",
        "m"
      ],
      [
        "T",
        "im"
      ],
      [
        "N",
        "o"
      ],
      [
        "Ġ",
        "Ã¢"
      ],
      [
        "Ġim",
        "p"
      ],
      [
        "re",
        "ss"
      ],
      [
        "Ġli",
        "ved"
      ],
      [
        "is",
        "hed"
      ],
      [
        "Ġsh",
        "ould"
      ],
      [
        "Ġit",
        "s"
      ],
      [
        "re",
        "e"
      ],
      [
        "Ġr",
        "ed"
      ],
      [
        "Ġtw",
        "o"
      ],
      [
        "Ġbra",
        "ve"
      ],
      [
        "Ġpe",
        "ople"
      ],
      [
        "Ġwal",
        "ked"
      ],
      [
        "urp",
        "r"
      ],
      [
        "ig",
        "h"
      ],
      [
        "an",
        "e"
      ],
      [
        "Ġfam",
        "ily"
      ],
      [
        "Ġsh",
        "are"
      ],
      [
        "Ġst",
        "or"
      ],
      [
        "Ġs",
        "urpr"
      ],
      [
        "Ġf",
        "in"
      ],
      [
        "B",
        "en"
      ],
      [
        "uc",
        "y"
      ],
      [
        "Ġd",
        "an"
      ],
      [
        "Ġf",
        "lew"
      ],
      [
        "Ġso",
        "on"
      ],
      [
        "Ġdo",
        "ll"
      ],
      [
        "L",
        "et"
      ],
      [
        "o",
        "b"
      ],
      [
        "i",
        "p"
      ],
      [
        "x",
        "t"
      ],
      [
        "W",
        "hen"
      ],
      [
        "f",
        "ore"
      ],
      [
        "Ġf",
        "ly"
      ],
      [
        "Ġp",
        "ic"
      ],
      [
        "Ġcall",
        "ed"
      ],
      [
        "l",
        "ed"
      ],
      [
        "Ġcle",
        "an"
      ],
      [
        "dd",
        "ed"
      ],
      [
        "Ġpret",
        "ty"
      ],
      [
        "Ġf",
        "ore"
      ],
      [
        "Ġke",
        "pt"
      ],
      [
        "Ġro",
        "ck"
      ],
      [
        "is",
        "ed"
      ],
      [
        "Ġdo",
        "or"
      ],
      [
        "Ġsh",
        "iny"
      ],
      [
        "Ġgo",
        "ing"
      ],
      [
        "Ġno",
        "ise"
      ],
      [
        "Ġke",
        "ep"
      ],
      [
        "h",
        "n"
      ],
      [
        "Ġd",
        "ra"
      ],
      [
        "Ġ",
        "P"
      ],
      [
        "ĠW",
        "hen"
      ],
      [
        "Ġc",
        "ry"
      ],
      [
        "Ġn",
        "ow"
      ],
      [
        "Ġt",
        "urn"
      ],
      [
        "s",
        "o"
      ],
      [
        "Ġw",
        "ind"
      ],
      [
        "Ġre",
        "al"
      ],
      [
        "um",
        "my"
      ],
      [
        "Ġop",
        "ened"
      ],
      [
        "Ġ",
        "ide"
      ],
      [
        "ar",
        "y"
      ],
      [
        "Ġal",
        "so"
      ],
      [
        "Ġbe",
        "fore"
      ],
      [
        "Ġst",
        "o"
      ],
      [
        "le",
        "s"
      ],
      [
        "Ġgr",
        "ound"
      ],
      [
        "Ġc",
        "on"
      ],
      [
        "Ġad",
        "vent"
      ],
      [
        "ag",
        "e"
      ],
      [
        "âĤ¬",
        "â"
      ],
      [
        "Ġha",
        "s"
      ],
      [
        "i",
        "ed"
      ],
      [
        "il",
        "ly"
      ],
      [
        "Ġe",
        "y"
      ],
      [
        "W",
        "hat"
      ],
      [
        "Ġcol",
        "or"
      ],
      [
        "k",
        "es"
      ],
      [
        "Ġide",
        "a"
      ],
      [
        "o",
        "on"
      ],
      [
        "Ġf",
        "r"
      ],
      [
        "Ġexpl",
        "ore"
      ],
      [
        "Ġf",
        "ar"
      ],
      [
        "Ġno",
        "dded"
      ],
      [
        "ay",
        "be"
      ],
      [
        "T",
        "hat"
      ],
      [
        "im",
        "b"
      ],
      [
        "Ġwa",
        "r"
      ],
      [
        "Ġu",
        "n"
      ],
      [
        "t",
        "ure"
      ],
      [
        "t",
        "h"
      ],
      [
        "Ġne",
        "xt"
      ],
      [
        "Ġcl",
        "imb"
      ],
      [
        "Ġpick",
        "ed"
      ],
      [
        "t",
        "hing"
      ],
      [
        "u",
        "ch"
      ],
      [
        "Ġsmil",
        "e"
      ],
      [
        "ĠD",
        "ad"
      ],
      [
        "o",
        "y"
      ],
      [
        "Ġb",
        "ed"
      ],
      [
        "Ġtr",
        "uck"
      ],
      [
        "Ġwh",
        "ile"
      ],
      [
        "Ġth",
        "r"
      ],
      [
        "Ġfeel",
        "ing"
      ],
      [
        "Ħ",
        "¢"
      ],
      [
        "âĤ¬â",
        "Ħ¢"
      ],
      [
        "Th",
        "ank"
      ],
      [
        "e",
        "et"
      ],
      [
        "Ġwal",
        "king"
      ],
      [
        "Ġw",
        "r"
      ],
      [
        "g",
        "er"
      ],
      [
        "ĠL",
        "ucy"
      ],
      [
        "Ġth",
        "ink"
      ],
      [
        "Ġg",
        "ive"
      ],
      [
        "Ġpic",
        "ture"
      ],
      [
        "Ġbe",
        "ing"
      ],
      [
        "f",
        "f"
      ],
      [
        "Ġ",
        "G"
      ],
      [
        "Ġadvent",
        "ure"
      ],
      [
        "Ġm",
        "a"
      ],
      [
        "Ġt",
        "ra"
      ],
      [
        "Ġto",
        "w"
      ],
      [
        "Ġf",
        "ood"
      ],
      [
        "Ġlist",
        "en"
      ],
      [
        "Ġbr",
        "o"
      ],
      [
        "p",
        "ot"
      ],
      [
        "a",
        "c"
      ],
      [
        "Ġd",
        "if"
      ],
      [
        "ic",
        "ed"
      ],
      [
        "Ġb",
        "re"
      ],
      [
        "Ġclo",
        "s"
      ],
      [
        "t",
        "ed"
      ],
      [
        "Ġey",
        "es"
      ],
      [
        "Ġwa",
        "it"
      ],
      [
        "j",
        "oy"
      ],
      [
        "i",
        "ous"
      ],
      [
        "ug",
        "ht"
      ],
      [
        "Ġa",
        "fter"
      ],
      [
        "Ġsto",
        "pped"
      ],
      [
        "Ġo",
        "wn"
      ],
      [
        "Ġflow",
        "ers"
      ],
      [
        "Ġd",
        "el"
      ],
      [
        "Ġloo",
        "king"
      ],
      [
        "Ġf",
        "ish"
      ],
      [
        "t",
        "ing"
      ],
      [
        "Ġre",
        "pl"
      ],
      [
        "Ġsh",
        "out"
      ],
      [
        "em",
        "ber"
      ],
      [
        "Ġhe",
        "ad"
      ],
      [
        "Ġhand",
        "s"
      ],
      [
        "Ġsl",
        "ide"
      ],
      [
        "S",
        "he"
      ],
      [
        "Ġbl",
        "ue"
      ],
      [
        "Ġwal",
        "k"
      ],
      [
        "Ġme",
        "an"
      ],
      [
        "Ġv",
        "o"
      ],
      [
        "Ġgre",
        "at"
      ],
      [
        "iz",
        "ed"
      ],
      [
        "Ġe",
        "ver"
      ],
      [
        "Ġas",
        "k"
      ],
      [
        "ir",
        "st"
      ],
      [
        "Ġimp",
        "ort"
      ],
      [
        "Ġu",
        "s"
      ],
      [
        "a",
        "ble"
      ],
      [
        "Ġs",
        "ound"
      ],
      [
        "Ġen",
        "joy"
      ],
      [
        "S",
        "uddenly"
      ],
      [
        "Ġo",
        "kay"
      ],
      [
        "le",
        "ase"
      ],
      [
        "Ġne",
        "ar"
      ],
      [
        "ĠS",
        "uddenly"
      ],
      [
        "ll",
        "ow"
      ],
      [
        "Ġa",
        "pp"
      ],
      [
        "Ġrem",
        "ember"
      ],
      [
        "A",
        "nna"
      ],
      [
        "W",
        "e"
      ],
      [
        "Ġfore",
        "st"
      ],
      [
        "Ġd",
        "is"
      ],
      [
        "Ġr",
        "ain"
      ],
      [
        "Ġnot",
        "iced"
      ],
      [
        "Ġwat",
        "ch"
      ],
      [
        "Ġqu",
        "ick"
      ],
      [
        "Ġimport",
        "ant"
      ],
      [
        "Ġst",
        "ick"
      ],
      [
        "Ġwo",
        "nder"
      ],
      [
        "Ġ",
        "our"
      ],
      [
        "Ġt",
        "al"
      ],
      [
        "bb",
        "it"
      ],
      [
        "Ġwor",
        "k"
      ],
      [
        "Ġshow",
        "ed"
      ],
      [
        "ma",
        "z"
      ],
      [
        "Ġa",
        "c"
      ],
      [
        "Ġa",
        "maz"
      ],
      [
        "Ġbo",
        "at"
      ],
      [
        "bb",
        "ed"
      ],
      [
        "Ġrepl",
        "ied"
      ],
      [
        "Ġstr",
        "ong"
      ],
      [
        "fe",
        "re"
      ],
      [
        "Ġdo",
        "es"
      ],
      [
        "ĠS",
        "pot"
      ],
      [
        "Ġfo",
        "llow"
      ],
      [
        "by",
        "e"
      ],
      [
        "Ġr",
        "ight"
      ],
      [
        "Ġdif",
        "fere"
      ],
      [
        "Ġs",
        "qu"
      ],
      [
        "Ġw",
        "here"
      ],
      [
        "Ġevery",
        "one"
      ],
      [
        "g",
        "an"
      ],
      [
        "Ġbr",
        "ight"
      ],
      [
        "d",
        "ay"
      ],
      [
        "Ġu",
        "se"
      ],
      [
        "L",
        "ook"
      ],
      [
        "Ġra",
        "bbit"
      ],
      [
        "Ġh",
        "op"
      ],
      [
        "Ġy",
        "ell"
      ],
      [
        "c",
        "o"
      ],
      [
        "il",
        "a"
      ],
      [
        "Ġwat",
        "ched"
      ],
      [
        "Ġd",
        "e"
      ],
      [
        "S",
        "ara"
      ],
      [
        "ĠS",
        "ue"
      ],
      [
        "Ġd",
        "ress"
      ],
      [
        "Ġfa",
        "ce"
      ],
      [
        "er",
        "ed"
      ],
      [
        "Ġa",
        "m"
      ],
      [
        "Ġm",
        "or"
      ],
      [
        "at",
        "h"
      ],
      [
        "ĠMom",
        "my"
      ],
      [
        "Ġ",
        "N"
      ],
      [
        "Ġquick",
        "ly"
      ],
      [
        "Ġcu",
        "ri"
      ],
      [
        "an",
        "ge"
      ],
      [
        "Ġdiffere",
        "nt"
      ],
      [
        "Ġbec",
        "ame"
      ],
      [
        "Ġs",
        "ure"
      ],
      [
        "Ġbe",
        "en"
      ],
      [
        "Ġvo",
        "ice"
      ],
      [
        "Ġbl",
        "ock"
      ],
      [
        "a",
        "ught"
      ],
      [
        "Ġst",
        "ore"
      ],
      [
        "Ġch",
        "ild"
      ],
      [
        "Ġpl",
        "ace"
      ],
      [
        "n",
        "g"
      ],
      [
        "Ġwar",
        "m"
      ],
      [
        "ĠB",
        "ob"
      ],
      [
        "Ġy",
        "e"
      ],
      [
        "S",
        "o"
      ],
      [
        "Ġh",
        "igh"
      ],
      [
        "Ġfor",
        "g"
      ],
      [
        "Ġc",
        "ake"
      ],
      [
        "Ġm",
        "ag"
      ],
      [
        "Ġgood",
        "bye"
      ],
      [
        "Ġ",
        "R"
      ],
      [
        "Ġt",
        "ell"
      ],
      [
        "Ġc",
        "ook"
      ],
      [
        "le",
        "ep"
      ],
      [
        "m",
        "ore"
      ],
      [
        "Ġany",
        "more"
      ],
      [
        "nd",
        "ma"
      ],
      [
        "Ġclos",
        "er"
      ],
      [
        "it",
        "c"
      ],
      [
        "Ġcuri",
        "ous"
      ],
      [
        "Ġfa",
        "v"
      ],
      [
        "Ġpu",
        "ll"
      ],
      [
        "Ġn",
        "ight"
      ],
      [
        "im",
        "es"
      ],
      [
        "Ġop",
        "en"
      ],
      [
        "ou",
        "nt"
      ],
      [
        "ĠT",
        "h"
      ],
      [
        "Ġbe",
        "l"
      ],
      [
        "Ġf",
        "irst"
      ],
      [
        "Ġle",
        "a"
      ],
      [
        "Ġhe",
        "re"
      ],
      [
        "is",
        "s"
      ],
      [
        "H",
        "er"
      ],
      [
        "C",
        "an"
      ],
      [
        "Ġfe",
        "ll"
      ],
      [
        "ir",
        "ed"
      ],
      [
        "Ġb",
        "us"
      ],
      [
        "Ġse",
        "es"
      ],
      [
        "Ġ",
        "z"
      ],
      [
        "un",
        "ny"
      ],
      [
        "a",
        "ched"
      ],
      [
        "Ġr",
        "u"
      ],
      [
        "or",
        "n"
      ],
      [
        "Ġbut",
        "ter"
      ],
      [
        "Ġp",
        "ain"
      ],
      [
        "J",
        "o"
      ],
      [
        "Ġk",
        "id"
      ],
      [
        "itc",
        "hen"
      ],
      [
        "Ġk",
        "itchen"
      ],
      [
        "Ġgra",
        "bbed"
      ],
      [
        "Ġfl",
        "o"
      ],
      [
        "Ġsw",
        "eet"
      ],
      [
        "u",
        "ll"
      ],
      [
        "Ġon",
        "ly"
      ],
      [
        "Ġth",
        "ree"
      ],
      [
        "Ġsa",
        "nd"
      ],
      [
        "Ġhelp",
        "ed"
      ],
      [
        "Ġst",
        "op"
      ],
      [
        "Ġm",
        "on"
      ],
      [
        "Ġbird",
        "s"
      ],
      [
        "Ġhapp",
        "ened"
      ],
      [
        "Ġb",
        "it"
      ],
      [
        "Ġfi",
        "re"
      ],
      [
        "Ġcon",
        "t"
      ],
      [
        "Ġgl",
        "ad"
      ],
      [
        "Ġjump",
        "ed"
      ],
      [
        "Ġc",
        "ra"
      ],
      [
        "Ġb",
        "a"
      ],
      [
        "Ġd",
        "r"
      ],
      [
        "ĠD",
        "o"
      ],
      [
        "is",
        "y"
      ],
      [
        "Ġt",
        "ri"
      ],
      [
        "Ġbr",
        "other"
      ],
      [
        "Ġgra",
        "ss"
      ],
      [
        "Ġbe",
        "h"
      ],
      [
        "Ġc",
        "r"
      ],
      [
        "Ġs",
        "ing"
      ],
      [
        "ĠL",
        "et"
      ],
      [
        "Ġshout",
        "ed"
      ],
      [
        "in",
        "s"
      ],
      [
        "a",
        "ir"
      ],
      [
        "ak",
        "es"
      ],
      [
        "Ġm",
        "ess"
      ],
      [
        "pp",
        "y"
      ],
      [
        "A",
        "fter"
      ],
      [
        "Ġp",
        "er"
      ],
      [
        "Ġreal",
        "ized"
      ],
      [
        "Ġstor",
        "y"
      ],
      [
        "Ġh",
        "at"
      ],
      [
        "Ġso",
        "ft"
      ],
      [
        "nt",
        "s"
      ],
      [
        "Ġl",
        "ady"
      ],
      [
        "'",
        "re"
      ],
      [
        "Ġre",
        "ached"
      ],
      [
        "Ġy",
        "ummy"
      ],
      [
        "Ġpret",
        "end"
      ],
      [
        "as",
        "s"
      ],
      [
        "Ġg",
        "ame"
      ],
      [
        "Ġha",
        "ving"
      ],
      [
        "Ġdra",
        "w"
      ],
      [
        "Ġunder",
        "st"
      ],
      [
        "Ġat",
        "e"
      ],
      [
        "Ġfav",
        "or"
      ],
      [
        "Ġp",
        "ap"
      ],
      [
        "Ġlook",
        "s"
      ],
      [
        "Ġfavor",
        "ite"
      ],
      [
        "Ġl",
        "ess"
      ],
      [
        "Ġre",
        "st"
      ],
      [
        "ĠSara",
        "h"
      ],
      [
        "z",
        "y"
      ],
      [
        "ĠC",
        "an"
      ],
      [
        "Ġc",
        "re"
      ],
      [
        "Ġpr",
        "in"
      ],
      [
        "Ġre",
        "ady"
      ],
      [
        "at",
        "er"
      ],
      [
        "Ġcar",
        "s"
      ],
      [
        "Ġthr",
        "ough"
      ],
      [
        "w",
        "here"
      ],
      [
        "k",
        "en"
      ],
      [
        "ĠJ",
        "ane"
      ],
      [
        "ĠA",
        "s"
      ],
      [
        "Ġth",
        "ing"
      ],
      [
        "Ġma",
        "king"
      ],
      [
        "Ġd",
        "uck"
      ],
      [
        "ĠEvery",
        "one"
      ],
      [
        "ĠT",
        "hat"
      ],
      [
        "Ġb",
        "unny"
      ],
      [
        "Ġp",
        "are"
      ],
      [
        "W",
        "ow"
      ],
      [
        "Ġre",
        "ally"
      ],
      [
        "Ġmag",
        "ic"
      ],
      [
        "Ġc",
        "ut"
      ],
      [
        "Ġfi",
        "x"
      ],
      [
        "Ġpo",
        "nd"
      ],
      [
        "Ġm",
        "um"
      ],
      [
        "Ġkid",
        "s"
      ],
      [
        "at",
        "her"
      ],
      [
        "Ġt",
        "ired"
      ],
      [
        "Ġblock",
        "s"
      ],
      [
        "Mom",
        "my"
      ],
      [
        "Ġto",
        "uch"
      ],
      [
        "Ġcom",
        "ing"
      ],
      [
        "Ġwor",
        "ry"
      ],
      [
        "Ġc",
        "ried"
      ],
      [
        "Ġwor",
        "ld"
      ],
      [
        "Ġhim",
        "self"
      ],
      [
        "Ġd",
        "one"
      ],
      [
        "Ġbe",
        "gan"
      ],
      [
        "u",
        "ff"
      ],
      [
        "Ġbutter",
        "f"
      ],
      [
        "b",
        "o"
      ],
      [
        "Ġcat",
        "ch"
      ],
      [
        "Ġfun",
        "ny"
      ],
      [
        "Ġwa",
        "ved"
      ],
      [
        "Ġp",
        "rom"
      ],
      [
        "Ġha",
        "ir"
      ],
      [
        "Ġho",
        "ld"
      ],
      [
        "Ġnam",
        "e"
      ],
      [
        "Ġan",
        "other"
      ],
      [
        "Ġwh",
        "y"
      ],
      [
        "fu",
        "lly"
      ],
      [
        "Ġp",
        "us"
      ],
      [
        "Ġflow",
        "er"
      ],
      [
        "Ġp",
        "art"
      ],
      [
        "ig",
        "n"
      ],
      [
        "Ġu",
        "sed"
      ],
      [
        "Ġst",
        "e"
      ],
      [
        "Ġf",
        "ro"
      ],
      [
        "Ġc",
        "ool"
      ],
      [
        "re",
        "l"
      ],
      [
        "st",
        "er"
      ],
      [
        "Ġli",
        "kes"
      ],
      [
        "Ġf",
        "ill"
      ],
      [
        "ĠJo",
        "e"
      ],
      [
        "one",
        "y"
      ],
      [
        "Ġse",
        "en"
      ],
      [
        "Ġflo",
        "or"
      ],
      [
        "Ġta",
        "st"
      ],
      [
        "Ġgre",
        "en"
      ],
      [
        "ed",
        "dy"
      ],
      [
        "Ġto",
        "p"
      ],
      [
        "i",
        "ver"
      ],
      [
        "i",
        "ent"
      ],
      [
        "h",
        "y"
      ],
      [
        "Ġw",
        "ished"
      ],
      [
        "Ġdel",
        "ic"
      ],
      [
        "Ġg",
        "i"
      ],
      [
        "Ġthan",
        "k"
      ],
      [
        "Ġsw",
        "im"
      ],
      [
        "s",
        "h"
      ],
      [
        "Ġpap",
        "er"
      ],
      [
        "Ġb",
        "ag"
      ],
      [
        "o",
        "lly"
      ],
      [
        "Ġl",
        "ight"
      ],
      [
        "Ġm",
        "ouse"
      ],
      [
        "D",
        "on"
      ],
      [
        "Ġpare",
        "nts"
      ],
      [
        "Ġdo",
        "ing"
      ],
      [
        "Tim",
        "my"
      ],
      [
        "Ġless",
        "on"
      ],
      [
        "at",
        "ion"
      ],
      [
        "Ġsm",
        "ell"
      ],
      [
        "Ġbeh",
        "ind"
      ],
      [
        "A",
        "s"
      ],
      [
        "Ġfar",
        "m"
      ],
      [
        "S",
        "am"
      ],
      [
        "Ġd",
        "ri"
      ],
      [
        "ard",
        "s"
      ],
      [
        "Ġb",
        "ow"
      ],
      [
        "Ġs",
        "leep"
      ],
      [
        "Ġsurpr",
        "ise"
      ],
      [
        "a",
        "isy"
      ],
      [
        "Ġwind",
        "ow"
      ],
      [
        "Ġre",
        "ad"
      ],
      [
        "Ġho",
        "le"
      ],
      [
        "Ġho",
        "pped"
      ],
      [
        "Ġd",
        "ro"
      ],
      [
        "Ġd",
        "in"
      ],
      [
        "Ġyell",
        "ow"
      ],
      [
        "ĠJo",
        "hn"
      ],
      [
        "Ġd",
        "ark"
      ],
      [
        "\"",
        "."
      ],
      [
        "Ġlaug",
        "h"
      ],
      [
        "Ġwor",
        "ked"
      ],
      [
        "i",
        "ke"
      ],
      [
        "and",
        "y"
      ],
      [
        "Ġtre",
        "es"
      ],
      [
        "Ġrun",
        "ning"
      ],
      [
        "re",
        "w"
      ],
      [
        "Ġsh",
        "o"
      ],
      [
        "Ġsw",
        "ing"
      ],
      [
        "re",
        "n"
      ],
      [
        "u",
        "ed"
      ],
      [
        "Ġw",
        "ood"
      ],
      [
        "el",
        "y"
      ],
      [
        "Ġf",
        "ull"
      ],
      [
        "Ġco",
        "ld"
      ],
      [
        "Ġs",
        "at"
      ],
      [
        "Ġsp",
        "ot"
      ],
      [
        "Ġ",
        "ice"
      ],
      [
        "u",
        "l"
      ],
      [
        "ar",
        "ing"
      ],
      [
        "Ġsl",
        "ow"
      ],
      [
        "Ġsurpr",
        "ised"
      ],
      [
        "Ġhapp",
        "ily"
      ],
      [
        "Ġremember",
        "ed"
      ],
      [
        "H",
        "ell"
      ],
      [
        "Hell",
        "o"
      ],
      [
        "Ġlo",
        "st"
      ],
      [
        "Ġbutterf",
        "ly"
      ],
      [
        "Ġs",
        "et"
      ],
      [
        "Ġbu",
        "y"
      ],
      [
        "Ġ",
        "-"
      ],
      [
        "ĠI",
        "n"
      ],
      [
        "Ġneed",
        "ed"
      ],
      [
        "Ġfro",
        "g"
      ],
      [
        "Ġhe",
        "ld"
      ],
      [
        "Ġmo",
        "ve"
      ],
      [
        "Ġye",
        "ars"
      ],
      [
        "Ġwr",
        "ong"
      ],
      [
        "u",
        "it"
      ],
      [
        "on",
        "s"
      ],
      [
        "Ġhe",
        "ar"
      ],
      [
        "Jo",
        "hn"
      ],
      [
        "Ġany",
        "thing"
      ],
      [
        "en",
        "s"
      ],
      [
        "Ġcare",
        "fully"
      ],
      [
        "Ġsn",
        "ow"
      ],
      [
        "Ġle",
        "ft"
      ],
      [
        "Ġfa",
        "ir"
      ],
      [
        "Ġd",
        "ir"
      ],
      [
        "Ġh",
        "un"
      ],
      [
        "Ġt",
        "all"
      ],
      [
        "Ġfollow",
        "ed"
      ],
      [
        "Ġd",
        "ream"
      ],
      [
        "Ġta",
        "ble"
      ],
      [
        "Ġbook",
        "s"
      ],
      [
        "Ġe",
        "l"
      ],
      [
        "Ġchild",
        "ren"
      ],
      [
        "Ġa",
        "ir"
      ],
      [
        "Ġper",
        "f"
      ],
      [
        "Ġh",
        "ot"
      ],
      [
        "ĠL",
        "ila"
      ],
      [
        "Ġb",
        "ug"
      ],
      [
        "Ġh",
        "id"
      ],
      [
        "Ġp",
        "lease"
      ],
      [
        "Ġfin",
        "ished"
      ],
      [
        "re",
        "ed"
      ],
      [
        "Ġenjoy",
        "ed"
      ],
      [
        "d",
        "s"
      ],
      [
        "Ġunderst",
        "and"
      ],
      [
        "Ġfriend",
        "ly"
      ],
      [
        "c",
        "ess"
      ],
      [
        "Ġher",
        "self"
      ],
      [
        "in",
        "ed"
      ],
      [
        "Ġar",
        "ri"
      ],
      [
        "Ġc",
        "ast"
      ],
      [
        "Ġh",
        "ill"
      ],
      [
        "Ġm",
        "ight"
      ],
      [
        "Ġclo",
        "se"
      ],
      [
        "ro",
        "ss"
      ],
      [
        "in",
        "ally"
      ],
      [
        "Ġel",
        "se"
      ],
      [
        "Ġcont",
        "in"
      ],
      [
        "ĠBen",
        "ny"
      ],
      [
        "Ġcolor",
        "s"
      ],
      [
        "ĠA",
        "fter"
      ],
      [
        "Ġbro",
        "ken"
      ],
      [
        "l",
        "f"
      ],
      [
        "Ġforg",
        "ot"
      ],
      [
        "Ġar",
        "m"
      ],
      [
        "Ġbu",
        "ild"
      ],
      [
        "s",
        "p"
      ],
      [
        "Ġdelic",
        "ious"
      ],
      [
        "Ġwant",
        "s"
      ],
      [
        "O",
        "K"
      ],
      [
        "Ġg",
        "ent"
      ],
      [
        "as",
        "h"
      ],
      [
        "at",
        "ter"
      ],
      [
        "Ġre",
        "l"
      ],
      [
        "as",
        "ure"
      ],
      [
        "ie",
        "ld"
      ],
      [
        "Ġg",
        "one"
      ],
      [
        "ĠN",
        "ow"
      ],
      [
        "Ġlea",
        "ves"
      ],
      [
        "Ġwa",
        "ll"
      ],
      [
        "Ġarri",
        "ved"
      ],
      [
        "Ġt",
        "ight"
      ],
      [
        "Ġs",
        "ong"
      ],
      [
        "n",
        "er"
      ],
      [
        "ro",
        "om"
      ],
      [
        "a",
        "v"
      ],
      [
        "Ġba",
        "by"
      ],
      [
        "Ġsqu",
        "ir"
      ],
      [
        "Ġsome",
        "one"
      ],
      [
        "Ġwonder",
        "ful"
      ],
      [
        "Ġa",
        "ble"
      ],
      [
        "The",
        "n"
      ],
      [
        "Ġcre",
        "at"
      ],
      [
        "Ġy",
        "es"
      ],
      [
        "ĠS",
        "ally"
      ],
      [
        "i",
        "ch"
      ],
      [
        "as",
        "k"
      ],
      [
        "ĠM",
        "aybe"
      ],
      [
        "Ġc",
        "ount"
      ],
      [
        "Ġfill",
        "ed"
      ],
      [
        "e",
        "e"
      ],
      [
        "ĠThe",
        "re"
      ],
      [
        "Ġsquir",
        "rel"
      ],
      [
        "Ġcontin",
        "ued"
      ],
      [
        "Ġbre",
        "ak"
      ],
      [
        "ĠD",
        "aisy"
      ],
      [
        "Ġag",
        "reed"
      ],
      [
        "Ġpo",
        "in"
      ],
      [
        "Ġp",
        "ink"
      ],
      [
        "Ġli",
        "on"
      ],
      [
        "Ġf",
        "all"
      ],
      [
        "Ġcook",
        "ies"
      ],
      [
        "Ġv",
        "is"
      ],
      [
        "F",
        "rom"
      ],
      [
        "Ġsc",
        "ary"
      ],
      [
        "Ġm",
        "akes"
      ],
      [
        "e",
        "y"
      ],
      [
        "'",
        "ll"
      ],
      [
        "J",
        "ack"
      ],
      [
        "ri",
        "es"
      ],
      [
        "Ġgra",
        "ndma"
      ],
      [
        "Ġsmil",
        "es"
      ],
      [
        "Ġj",
        "u"
      ],
      [
        "ĠE",
        "m"
      ],
      [
        "Ġmom",
        "ent"
      ],
      [
        "Ġf",
        "ight"
      ],
      [
        "Ġsomet",
        "imes"
      ],
      [
        "Ġen",
        "ough"
      ],
      [
        "m",
        "an"
      ],
      [
        "Ġhun",
        "gry"
      ],
      [
        "ic",
        "y"
      ],
      [
        "Ġturn",
        "ed"
      ],
      [
        "Ġstay",
        "ed"
      ],
      [
        "Ġfin",
        "ally"
      ],
      [
        "Ġp",
        "i"
      ],
      [
        "Ġw",
        "et"
      ],
      [
        "Ġc",
        "ream"
      ],
      [
        "Ġcast",
        "le"
      ],
      [
        "r",
        "ow"
      ],
      [
        "Ġmor",
        "ning"
      ],
      [
        "Ġpicture",
        "s"
      ],
      [
        "Ġget",
        "ting"
      ],
      [
        "Ġ",
        "K"
      ],
      [
        "ĠTom",
        "my"
      ],
      [
        "Ġother",
        "s"
      ],
      [
        "Ġcom",
        "p"
      ],
      [
        "ĠTh",
        "is"
      ],
      [
        "a",
        "pp"
      ],
      [
        "g",
        "on"
      ],
      [
        "Ġbe",
        "ach"
      ],
      [
        "Ġdin",
        "ner"
      ],
      [
        "Ġtal",
        "k"
      ],
      [
        "ou",
        "p"
      ],
      [
        "Ġlist",
        "ened"
      ],
      [
        "ĠW",
        "hat"
      ],
      [
        "Ġtry",
        "ing"
      ],
      [
        "Ġclimb",
        "ed"
      ],
      [
        "o",
        "om"
      ],
      [
        "Th",
        "is"
      ],
      [
        "am",
        "a"
      ],
      [
        "Ġcl",
        "ot"
      ],
      [
        "Ġta",
        "il"
      ],
      [
        "Ġmu",
        "s"
      ],
      [
        "Ġm",
        "et"
      ],
      [
        "Ġask",
        "s"
      ],
      [
        "Ġclot",
        "hes"
      ],
      [
        "an",
        "ce"
      ],
      [
        "l",
        "c"
      ],
      [
        "Ġm",
        "other"
      ],
      [
        "c",
        "ed"
      ],
      [
        "r",
        "ot"
      ],
      [
        "a",
        "pped"
      ],
      [
        "Ġamaz",
        "ing"
      ],
      [
        "Ġball",
        "oon"
      ],
      [
        "Ġfe",
        "w"
      ],
      [
        "A",
        "t"
      ],
      [
        "Ġwh",
        "ite"
      ],
      [
        "en",
        "ce"
      ],
      [
        "uff",
        "y"
      ],
      [
        "Ġm",
        "ar"
      ],
      [
        "Ġpu",
        "ppy"
      ],
      [
        "r",
        "ed"
      ],
      [
        "Ġsp",
        "l"
      ],
      [
        "ke",
        "y"
      ],
      [
        "Ġf",
        "ur"
      ],
      [
        "Ġal",
        "one"
      ],
      [
        "Ġperf",
        "ect"
      ],
      [
        "H",
        "is"
      ],
      [
        "or",
        "ing"
      ],
      [
        "Ġp",
        "et"
      ],
      [
        "ĠG",
        "ra"
      ],
      [
        "O",
        "h"
      ],
      [
        "Ġdad",
        "dy"
      ],
      [
        "Ġs",
        "it"
      ],
      [
        "is",
        "ter"
      ],
      [
        "ĠB",
        "illy"
      ],
      [
        "uck",
        "y"
      ],
      [
        "ĠJ",
        "en"
      ],
      [
        "Ġsa",
        "il"
      ],
      [
        "ct",
        "or"
      ],
      [
        "Ġpo",
        "l"
      ],
      [
        "am",
        "p"
      ],
      [
        "Ġbr",
        "ought"
      ],
      [
        "Ġgr",
        "ow"
      ],
      [
        "d",
        "er"
      ],
      [
        "ot",
        "t"
      ],
      [
        "Ġevery",
        "thing"
      ],
      [
        "Ġpull",
        "ed"
      ],
      [
        "Ġwas",
        "n"
      ],
      [
        "w",
        "l"
      ],
      [
        "Ġwa",
        "ited"
      ],
      [
        "Ġr",
        "ide"
      ],
      [
        "Ġse",
        "ar"
      ],
      [
        "Ġstr",
        "ange"
      ],
      [
        "Ġdan",
        "ger"
      ],
      [
        "at",
        "ed"
      ],
      [
        "Ġp",
        "ie"
      ],
      [
        "Ġw",
        "on"
      ],
      [
        "Ġro",
        "ll"
      ],
      [
        "Ġsp",
        "ark"
      ],
      [
        "Ġrun",
        "s"
      ],
      [
        "Ġjo",
        "y"
      ],
      [
        "Ġwood",
        "s"
      ],
      [
        "Ġde",
        "ep"
      ],
      [
        "Ġh",
        "ide"
      ],
      [
        "ĠT",
        "o"
      ],
      [
        "Ġvis",
        "it"
      ],
      [
        "Ġthink",
        "s"
      ],
      [
        "Ġpl",
        "an"
      ],
      [
        "ow",
        "er"
      ],
      [
        "Ġle",
        "ave"
      ],
      [
        "M",
        "aybe"
      ],
      [
        "z",
        "z"
      ],
      [
        "m",
        "e"
      ],
      [
        "Ġli",
        "ving"
      ],
      [
        "Ġp",
        "at"
      ],
      [
        "Ġfo",
        "x"
      ],
      [
        "Ġmus",
        "ic"
      ],
      [
        "Ġamaz",
        "ed"
      ],
      [
        "o",
        "s"
      ],
      [
        "et",
        "er"
      ],
      [
        "Ġs",
        "illy"
      ],
      [
        "ap",
        "e"
      ],
      [
        "Ġtow",
        "ards"
      ],
      [
        "Ġt",
        "eddy"
      ],
      [
        "an",
        "g"
      ],
      [
        "Ġp",
        "en"
      ],
      [
        "O",
        "kay"
      ],
      [
        "Ġcl",
        "oud"
      ],
      [
        "g",
        "s"
      ],
      [
        "M",
        "ax"
      ],
      [
        "Ġfly",
        "ing"
      ],
      [
        "m",
        "ed"
      ],
      [
        "is",
        "es"
      ],
      [
        "e",
        "ver"
      ],
      [
        "ug",
        "g"
      ],
      [
        "Ġe",
        "m"
      ],
      [
        "Ġtre",
        "at"
      ],
      [
        "am",
        "es"
      ],
      [
        "Ġown",
        "er"
      ],
      [
        "th",
        "y"
      ],
      [
        "Ġqu",
        "i"
      ],
      [
        "Ġg",
        "u"
      ],
      [
        "Ġp",
        "a"
      ],
      [
        "Ġsh",
        "ared"
      ],
      [
        "Ġla",
        "nd"
      ],
      [
        "Ġp",
        "re"
      ],
      [
        "ig",
        "g"
      ],
      [
        "Ġs",
        "ister"
      ],
      [
        "op",
        "e"
      ],
      [
        "ĠA",
        "my"
      ],
      [
        "ain",
        "ed"
      ],
      [
        "i",
        "x"
      ],
      [
        "Ġm",
        "oney"
      ],
      [
        "Ġgr",
        "ate"
      ],
      [
        "Ġprom",
        "ised"
      ],
      [
        "Ġbro",
        "ke"
      ],
      [
        "Ġr",
        "ace"
      ],
      [
        "c",
        "le"
      ],
      [
        "Ġf",
        "ield"
      ],
      [
        "Ġs",
        "ide"
      ],
      [
        "ck",
        "et"
      ],
      [
        "Ġfast",
        "er"
      ],
      [
        "u",
        "p"
      ],
      [
        "Ġl",
        "ake"
      ],
      [
        "Ġpain",
        "t"
      ],
      [
        "Ġb",
        "ott"
      ],
      [
        "av",
        "y"
      ],
      [
        "Ġgrate",
        "ful"
      ],
      [
        "Ġqui",
        "et"
      ],
      [
        "Ġmor",
        "al"
      ],
      [
        "Ġjo",
        "b"
      ],
      [
        "Ġbr",
        "an"
      ],
      [
        "Ġpart",
        "y"
      ],
      [
        "Ġtra",
        "in"
      ],
      [
        "ec",
        "es"
      ],
      [
        "Ġbel",
        "ie"
      ],
      [
        "un",
        "ch"
      ],
      [
        "Ġpi",
        "eces"
      ],
      [
        "Ġcu",
        "p"
      ],
      [
        "Ġwe",
        "ar"
      ],
      [
        "Ġdan",
        "ce"
      ],
      [
        "s",
        "w"
      ],
      [
        "Ġc",
        "andy"
      ],
      [
        "Ġwor",
        "ried"
      ],
      [
        "Ġmu",
        "st"
      ],
      [
        "Ġan",
        "sw"
      ],
      [
        "Ġtre",
        "asure"
      ],
      [
        "Ġdoll",
        "s"
      ],
      [
        "Ġe",
        "le"
      ],
      [
        "Ġbl",
        "ank"
      ],
      [
        "Ġslow",
        "ly"
      ],
      [
        "Ġg",
        "if"
      ],
      [
        "Ġwe",
        "lc"
      ],
      [
        "Ġre",
        "ach"
      ],
      [
        "Ġcolor",
        "ful"
      ],
      [
        "z",
        "e"
      ],
      [
        "out",
        "h"
      ],
      [
        "Ġb",
        "ike"
      ],
      [
        "Ġbig",
        "ger"
      ],
      [
        "Ġsc",
        "ream"
      ],
      [
        "p",
        "h"
      ],
      [
        "o",
        "l"
      ],
      [
        "Ġch",
        "o"
      ],
      [
        "Ġm",
        "outh"
      ],
      [
        "Ġblank",
        "et"
      ],
      [
        "Ġ",
        "ve"
      ],
      [
        "Ġsm",
        "art"
      ],
      [
        "Ġbl",
        "ack"
      ],
      [
        "u",
        "ally"
      ],
      [
        "Ġsn",
        "ack"
      ],
      [
        "as",
        "ed"
      ],
      [
        "Ġr",
        "iver"
      ],
      [
        "S",
        "ure"
      ],
      [
        "or",
        "m"
      ],
      [
        "ĠJ",
        "im"
      ],
      [
        "l",
        "ing"
      ],
      [
        "Ġevery",
        "where"
      ],
      [
        "i",
        "re"
      ],
      [
        "Ġpr",
        "o"
      ],
      [
        "Ġdanger",
        "ous"
      ],
      [
        "Ġb",
        "ar"
      ],
      [
        "f",
        "ort"
      ],
      [
        "ck",
        "ed"
      ],
      [
        "Ġtow",
        "er"
      ],
      [
        "Ġw",
        "in"
      ],
      [
        "Ġs",
        "uch"
      ],
      [
        "le",
        "ss"
      ],
      [
        "Ġtw",
        "ins"
      ],
      [
        "Ġn",
        "ap"
      ],
      [
        "Ġth",
        "rew"
      ],
      [
        "Ġpl",
        "ant"
      ],
      [
        "ĠA",
        "ll"
      ],
      [
        "Ġjo",
        "in"
      ],
      [
        "Ġdir",
        "ty"
      ],
      [
        "Ġhelp",
        "ing"
      ],
      [
        "Ġj",
        "e"
      ],
      [
        "Ġs",
        "ign"
      ],
      [
        "Ġp",
        "ot"
      ],
      [
        "Ġprin",
        "cess"
      ],
      [
        "Ġmon",
        "ster"
      ],
      [
        "Ġcry",
        "ing"
      ],
      [
        "Ġhop",
        "ed"
      ],
      [
        "Ġbow",
        "l"
      ],
      [
        "ĠF",
        "l"
      ],
      [
        "s",
        "et"
      ],
      [
        "Ġmon",
        "key"
      ],
      [
        "Ġmagic",
        "al"
      ],
      [
        "or",
        "ed"
      ],
      [
        "Ġdra",
        "gon"
      ],
      [
        "i",
        "pped"
      ],
      [
        "Ġbe",
        "e"
      ],
      [
        "Ġwor",
        "ds"
      ],
      [
        "M",
        "ia"
      ],
      [
        "Ġb",
        "ite"
      ],
      [
        "Ġsp",
        "r"
      ],
      [
        "Ġhe",
        "avy"
      ],
      [
        "m",
        "ing"
      ],
      [
        "Ġcar",
        "rot"
      ],
      [
        "Ġdo",
        "ctor"
      ],
      [
        "id",
        "ent"
      ],
      [
        "Ġmo",
        "st"
      ],
      [
        "H",
        "i"
      ],
      [
        "Ġac",
        "c"
      ],
      [
        "d",
        "e"
      ],
      [
        "Ġsa",
        "me"
      ],
      [
        "W",
        "hy"
      ],
      [
        "b",
        "ble"
      ],
      [
        "Ġfr",
        "uit"
      ],
      [
        "e",
        "re"
      ],
      [
        "Ġac",
        "ross"
      ],
      [
        "e",
        "ar"
      ],
      [
        "Ġb",
        "uck"
      ],
      [
        "Ġhe",
        "al"
      ],
      [
        "Ġfarm",
        "er"
      ],
      [
        "Ġte",
        "ac"
      ],
      [
        "Ġfeel",
        "s"
      ],
      [
        "Ġb",
        "ath"
      ],
      [
        "Ġclo",
        "sed"
      ],
      [
        "ĠDad",
        "dy"
      ],
      [
        "Ġdis",
        "app"
      ],
      [
        "Ġh",
        "ig"
      ],
      [
        "Ġst",
        "uck"
      ],
      [
        "ĠJ",
        "ill"
      ],
      [
        "Ġste",
        "pped"
      ],
      [
        "ĠM",
        "r"
      ],
      [
        "Ġm",
        "ix"
      ],
      [
        "e",
        "ared"
      ],
      [
        "Ġco",
        "ll"
      ],
      [
        "Ġbut",
        "t"
      ],
      [
        "Ġto",
        "wn"
      ],
      [
        "ch",
        "ool"
      ],
      [
        "Ġhe",
        "art"
      ],
      [
        "Ġst",
        "re"
      ],
      [
        "Ġwould",
        "n"
      ],
      [
        "Ġat",
        "t"
      ],
      [
        "ask",
        "et"
      ],
      [
        "Ġcr",
        "ay"
      ],
      [
        "Ġc",
        "our"
      ],
      [
        "Ġb",
        "asket"
      ],
      [
        "Ġbelie",
        "ve"
      ],
      [
        "Ġch",
        "air"
      ],
      [
        "ĠM",
        "olly"
      ],
      [
        "Ġeat",
        "ing"
      ],
      [
        "Ġpus",
        "hed"
      ],
      [
        "Ġbr",
        "own"
      ],
      [
        "Ġs",
        "chool"
      ],
      [
        "is",
        "sed"
      ],
      [
        "Ġh",
        "it"
      ],
      [
        "Ġteac",
        "her"
      ],
      [
        "Ġcour",
        "se"
      ],
      [
        "Ġy",
        "ard"
      ],
      [
        "it",
        "ing"
      ],
      [
        "Ġsw",
        "ings"
      ],
      [
        "t",
        "s"
      ],
      [
        "Ġgent",
        "le"
      ],
      [
        "Ġp",
        "ack"
      ],
      [
        "Ġwith",
        "out"
      ],
      [
        "Ġfair",
        "y"
      ],
      [
        "Ġsm",
        "o"
      ],
      [
        "or",
        "d"
      ],
      [
        "Ġwelc",
        "ome"
      ],
      [
        "Ġno",
        "ises"
      ],
      [
        "Ġm",
        "in"
      ],
      [
        "L",
        "ila"
      ],
      [
        "Ġto",
        "day"
      ],
      [
        "Ġne",
        "igh"
      ],
      [
        "Ġp",
        "ers"
      ],
      [
        "Ġcl",
        "apped"
      ],
      [
        "Ġturn",
        "s"
      ],
      [
        "Ġhig",
        "her"
      ],
      [
        "or",
        "row"
      ],
      [
        "Ġacc",
        "ident"
      ],
      [
        "or",
        "s"
      ],
      [
        "um",
        "b"
      ],
      [
        "pp",
        "ing"
      ],
      [
        "Ġg",
        "ames"
      ],
      [
        "Ġse",
        "c"
      ],
      [
        "Ġneigh",
        "b"
      ],
      [
        "Ġthr",
        "ow"
      ],
      [
        "b",
        "r"
      ],
      [
        "i",
        "er"
      ],
      [
        "Ġne",
        "ck"
      ],
      [
        "ve",
        "l"
      ],
      [
        "Ġdro",
        "ve"
      ],
      [
        "Ġhug",
        "s"
      ],
      [
        "Ġst",
        "and"
      ],
      [
        "Ġb",
        "en"
      ],
      [
        "Ġs",
        "uddenly"
      ],
      [
        "h",
        "o"
      ],
      [
        "Ġpo",
        "cket"
      ],
      [
        "our",
        "n"
      ],
      [
        "vent",
        "ually"
      ],
      [
        "Ġpie",
        "ce"
      ],
      [
        "Ġd",
        "ry"
      ],
      [
        "Ġfor",
        "get"
      ],
      [
        "Ġl",
        "on"
      ],
      [
        "Ġj",
        "ourn"
      ],
      [
        "Ġf",
        "ree"
      ],
      [
        "Ġche",
        "ered"
      ],
      [
        "Ġf",
        "ence"
      ],
      [
        "ra",
        "ct"
      ],
      [
        "e",
        "ad"
      ],
      [
        "Ġlon",
        "ely"
      ],
      [
        "Ġw",
        "ings"
      ],
      [
        "Ġhapp",
        "en"
      ],
      [
        "ph",
        "ant"
      ],
      [
        "c",
        "y"
      ],
      [
        "Ġwe",
        "ll"
      ],
      [
        "Ġexpl",
        "ained"
      ],
      [
        "Ġal",
        "ong"
      ],
      [
        "Ġse",
        "a"
      ],
      [
        "Ġm",
        "at"
      ],
      [
        "itt",
        "ing"
      ],
      [
        "Ġstor",
        "ies"
      ],
      [
        "Ġsa",
        "ng"
      ],
      [
        "Ġl",
        "ate"
      ],
      [
        "Ġin",
        "st"
      ],
      [
        "c",
        "hes"
      ],
      [
        "i",
        "ble"
      ],
      [
        "Ġup",
        "set"
      ],
      [
        "Ġlong",
        "er"
      ],
      [
        "Ġc",
        "orn"
      ],
      [
        "Ġele",
        "phant"
      ],
      [
        "Ġsh",
        "ook"
      ],
      [
        "Ġsho",
        "es"
      ],
      [
        "Ġtr",
        "ou"
      ],
      [
        "ock",
        "ed"
      ],
      [
        "Ġc",
        "aught"
      ],
      [
        "Ġs",
        "oup"
      ],
      [
        "Ġm",
        "iss"
      ],
      [
        "Ġw",
        "ish"
      ],
      [
        "Ġl",
        "unch"
      ],
      [
        "Ġm",
        "ine"
      ],
      [
        "Ġst",
        "ar"
      ],
      [
        "F",
        "inally"
      ],
      [
        "Ġst",
        "ars"
      ],
      [
        "Ġsh",
        "ap"
      ],
      [
        "Ġw",
        "he"
      ],
      [
        "Ġp",
        "urp"
      ],
      [
        "Ġbuck",
        "et"
      ],
      [
        "Ġadventure",
        "s"
      ],
      [
        "Ġrock",
        "s"
      ],
      [
        "Ġsec",
        "ret"
      ],
      [
        "ou",
        "n"
      ],
      [
        "Ġp",
        "h"
      ],
      [
        "Ġdro",
        "pped"
      ],
      [
        "m",
        "ent"
      ],
      [
        "Ġyou",
        "ng"
      ],
      [
        "Ġj",
        "ar"
      ],
      [
        "Ġbr",
        "ing"
      ],
      [
        "bb",
        "y"
      ],
      [
        "Ġmo",
        "ved"
      ],
      [
        "Ġp",
        "ast"
      ],
      [
        "c",
        "es"
      ],
      [
        "Ġto",
        "m"
      ],
      [
        "Ġsing",
        "ing"
      ],
      [
        "Ġsw",
        "am"
      ],
      [
        "Ġd",
        "ist"
      ],
      [
        "aught",
        "y"
      ],
      [
        "Ġbel",
        "ong"
      ],
      [
        "e",
        "k"
      ],
      [
        "Ġn",
        "aughty"
      ],
      [
        "ĠTh",
        "ank"
      ],
      [
        "Ġta",
        "kes"
      ],
      [
        "D",
        "o"
      ],
      [
        "Ġpl",
        "ac"
      ],
      [
        "Ġapp",
        "le"
      ],
      [
        "y",
        "ard"
      ],
      [
        "Ġpurp",
        "le"
      ],
      [
        "ount",
        "ain"
      ],
      [
        "ll",
        "o"
      ],
      [
        "u",
        "b"
      ],
      [
        "Ġback",
        "yard"
      ],
      [
        "Ġta",
        "king"
      ],
      [
        "Ġdr",
        "ink"
      ],
      [
        "ĠGra",
        "ndma"
      ],
      [
        "Ġo",
        "wl"
      ],
      [
        "fu",
        "sed"
      ],
      [
        "ĠM",
        "ary"
      ],
      [
        "Ġor",
        "ange"
      ],
      [
        "Ġstre",
        "et"
      ],
      [
        "ĠFl",
        "uffy"
      ],
      [
        "Ġcom",
        "es"
      ],
      [
        "Ġshap",
        "es"
      ],
      [
        "Ġex",
        "p"
      ],
      [
        "Ġno",
        "se"
      ],
      [
        "b",
        "ow"
      ],
      [
        "Ġju",
        "ice"
      ],
      [
        "a",
        "il"
      ],
      [
        "Ġre",
        "sp"
      ],
      [
        "Ġke",
        "y"
      ],
      [
        "Ġw",
        "ise"
      ],
      [
        "Ġc",
        "ow"
      ],
      [
        "Ġsound",
        "s"
      ],
      [
        "Ġnot",
        "hing"
      ],
      [
        "w",
        "ard"
      ],
      [
        "Ġp",
        "ig"
      ],
      [
        "co",
        "l"
      ],
      [
        "Ġnear",
        "by"
      ],
      [
        "Ġc",
        "a"
      ],
      [
        "Ġben",
        "ch"
      ],
      [
        "Ġ",
        "es"
      ],
      [
        "ĠEm",
        "ma"
      ],
      [
        "Ġwonder",
        "ed"
      ],
      [
        "Ġexpl",
        "oring"
      ],
      [
        "us",
        "h"
      ],
      [
        "Ġm",
        "ad"
      ],
      [
        "un",
        "g"
      ],
      [
        "Ġc",
        "ou"
      ],
      [
        "Ġa",
        "f"
      ],
      [
        "Ġs",
        "ick"
      ],
      [
        "ck",
        "s"
      ],
      [
        "Ġwo",
        "ke"
      ],
      [
        "Ġbus",
        "y"
      ],
      [
        "es",
        "e"
      ],
      [
        "Ġsh",
        "op"
      ],
      [
        "Ġsee",
        "med"
      ],
      [
        "Ġst",
        "u"
      ],
      [
        "f",
        "ish"
      ],
      [
        "Ġma",
        "il"
      ],
      [
        "Ġin",
        "v"
      ],
      [
        "Ġrel",
        "ie"
      ],
      [
        "ad",
        "ow"
      ],
      [
        "Ġd",
        "es"
      ],
      [
        "aught",
        "er"
      ],
      [
        "ion",
        "s"
      ],
      [
        "Ġth",
        "ough"
      ],
      [
        "c",
        "ing"
      ],
      [
        "Ġhold",
        "ing"
      ],
      [
        "s",
        "y"
      ],
      [
        "Ġbran",
        "ch"
      ],
      [
        "Ġ",
        "O"
      ],
      [
        "A",
        "nd"
      ],
      [
        "Ġm",
        "ark"
      ],
      [
        "itt",
        "ens"
      ],
      [
        "Ġs",
        "itting"
      ],
      [
        "Ġarm",
        "s"
      ],
      [
        "Ġt",
        "iny"
      ],
      [
        "Ġrain",
        "bow"
      ],
      [
        "Ġye",
        "ar"
      ],
      [
        "Ġn",
        "est"
      ],
      [
        "Ġm",
        "il"
      ],
      [
        "in",
        "ing"
      ],
      [
        "ra",
        "id"
      ],
      [
        "Ġo",
        "b"
      ],
      [
        "Ġaf",
        "raid"
      ],
      [
        "th",
        "day"
      ],
      [
        "w",
        "eet"
      ],
      [
        "it",
        "y"
      ],
      [
        "Ġr",
        "ound"
      ],
      [
        "ĠC",
        "ome"
      ],
      [
        "Ġdri",
        "ver"
      ],
      [
        "o",
        "se"
      ],
      [
        "Ġsp",
        "oon"
      ],
      [
        "pp",
        "er"
      ],
      [
        "Ġ",
        "3"
      ],
      [
        "Ġcut",
        "e"
      ],
      [
        "Ġpat",
        "ient"
      ],
      [
        "Ġgif",
        "t"
      ],
      [
        "re",
        "ad"
      ],
      [
        "Ġli",
        "ft"
      ],
      [
        "Ġk",
        "ite"
      ],
      [
        "Ġk",
        "ing"
      ],
      [
        "Ġc",
        "ir"
      ],
      [
        "Ġcar",
        "ry"
      ],
      [
        "Ġd",
        "aughter"
      ],
      [
        "Ġhe",
        "llo"
      ],
      [
        "t",
        "o"
      ],
      [
        "et",
        "h"
      ],
      [
        "O",
        "f"
      ],
      [
        "Ġf",
        "it"
      ],
      [
        "Ġshe",
        "ll"
      ],
      [
        "ver",
        "ed"
      ],
      [
        "Ġb",
        "oun"
      ],
      [
        "id",
        "ge"
      ],
      [
        "Ġwh",
        "ist"
      ],
      [
        "ĠIn",
        "side"
      ],
      [
        "Ġpe",
        "ace"
      ],
      [
        "Ġfore",
        "ver"
      ],
      [
        "Ġb",
        "and"
      ],
      [
        "Ġbre",
        "ad"
      ],
      [
        "Ġco",
        "at"
      ],
      [
        "u",
        "ched"
      ],
      [
        "Ġto",
        "uched"
      ],
      [
        "bo",
        "ard"
      ],
      [
        "Ġhug",
        "e"
      ],
      [
        "Ġprom",
        "ise"
      ],
      [
        "Ġput",
        "s"
      ],
      [
        "Ġgra",
        "b"
      ],
      [
        "Ġche",
        "ese"
      ],
      [
        "Ġgi",
        "ves"
      ],
      [
        "Ġhop",
        "e"
      ],
      [
        "le",
        "t"
      ],
      [
        "st",
        "ing"
      ],
      [
        "Ġrelie",
        "ved"
      ],
      [
        "c",
        "er"
      ],
      [
        "He",
        "y"
      ],
      [
        "Ġbott",
        "le"
      ],
      [
        "Ġbir",
        "thday"
      ],
      [
        "our",
        "s"
      ],
      [
        "Ġf",
        "ing"
      ],
      [
        "Ġaccident",
        "ally"
      ],
      [
        "Ġl",
        "etter"
      ],
      [
        "Ġswim",
        "ming"
      ],
      [
        "ĠSam",
        "my"
      ],
      [
        "sh",
        "ine"
      ],
      [
        "Ġg",
        "igg"
      ],
      [
        "al",
        "m"
      ],
      [
        "Ġw",
        "ra"
      ],
      [
        "ĠF",
        "inally"
      ],
      [
        "Ġp",
        "ower"
      ],
      [
        "Ġint",
        "ere"
      ],
      [
        "Ġmil",
        "k"
      ],
      [
        "Ġk",
        "ick"
      ],
      [
        "g",
        "g"
      ],
      [
        "Ġa",
        "ct"
      ],
      [
        "Ġli",
        "fe"
      ],
      [
        "Ġm",
        "ist"
      ],
      [
        "Ġco",
        "zy"
      ],
      [
        "Ġon",
        "to"
      ],
      [
        "u",
        "nt"
      ],
      [
        "o",
        "g"
      ],
      [
        "Ġjourn",
        "ey"
      ],
      [
        "Ġl",
        "ucky"
      ],
      [
        "Ġcreat",
        "ure"
      ],
      [
        "Ġexc",
        "iting"
      ],
      [
        "Ġsun",
        "shine"
      ],
      [
        "g",
        "ged"
      ],
      [
        "Ġlaug",
        "hing"
      ],
      [
        "Ġinst",
        "ead"
      ],
      [
        "L",
        "ater"
      ],
      [
        "Ġday",
        "s"
      ],
      [
        "Ġbus",
        "h"
      ],
      [
        "p",
        "ed"
      ],
      [
        "Ġf",
        "an"
      ],
      [
        "ar",
        "p"
      ],
      [
        "Ġsp",
        "in"
      ],
      [
        "Ġcoll",
        "ect"
      ],
      [
        "Ġp",
        "udd"
      ],
      [
        "Ġpoin",
        "ted"
      ],
      [
        "Ġsun",
        "ny"
      ],
      [
        "Ġcom",
        "fort"
      ],
      [
        "Ġre",
        "t"
      ],
      [
        "it",
        "ch"
      ],
      [
        "Ġe",
        "ar"
      ],
      [
        "Ġim",
        "ag"
      ],
      [
        "Ġro",
        "ad"
      ],
      [
        "Ġc",
        "ave"
      ],
      [
        "b",
        "all"
      ],
      [
        "n",
        "ess"
      ],
      [
        "Ġdis",
        "co"
      ],
      [
        "Ġsh",
        "arp"
      ],
      [
        "Tom",
        "my"
      ],
      [
        "t",
        "en"
      ],
      [
        "Ġin",
        "c"
      ],
      [
        "Ġany",
        "one"
      ],
      [
        "Ġe",
        "as"
      ],
      [
        "el",
        "s"
      ],
      [
        "Ġsp",
        "o"
      ],
      [
        "iz",
        "e"
      ],
      [
        "Ġsmil",
        "ing"
      ],
      [
        "Ġret",
        "urn"
      ],
      [
        "Ġl",
        "ater"
      ],
      [
        "Ġh",
        "oney"
      ],
      [
        "Ġw",
        "om"
      ],
      [
        "Ġsand",
        "w"
      ],
      [
        "Ġwom",
        "an"
      ],
      [
        "Ġtal",
        "ked"
      ],
      [
        "Ġwatch",
        "ing"
      ],
      [
        "Ġduck",
        "s"
      ],
      [
        "ĠM",
        "ama"
      ],
      [
        "Ġsear",
        "ched"
      ],
      [
        "ĠSo",
        "on"
      ],
      [
        "m",
        "er"
      ],
      [
        "Ġb",
        "ought"
      ],
      [
        "Ġh",
        "or"
      ],
      [
        "ble",
        "m"
      ],
      [
        "G",
        "ood"
      ],
      [
        "Ġpro",
        "blem"
      ],
      [
        "Ġbutt",
        "on"
      ],
      [
        "Ġlo",
        "ves"
      ],
      [
        "Ġg",
        "ather"
      ],
      [
        "Ġme",
        "et"
      ],
      [
        "Ġtrou",
        "ble"
      ],
      [
        "Ġp",
        "op"
      ],
      [
        "ir",
        "t"
      ],
      [
        "Ġs",
        "uc"
      ],
      [
        "Ġheal",
        "thy"
      ],
      [
        "Ġp",
        "ile"
      ],
      [
        "Ġk",
        "iss"
      ],
      [
        "Ġsnow",
        "man"
      ],
      [
        "Ġpers",
        "on"
      ],
      [
        "Ġapp",
        "les"
      ],
      [
        "Ġm",
        "ach"
      ],
      [
        "Ġcray",
        "ons"
      ],
      [
        "r",
        "ound"
      ],
      [
        "Ġsmell",
        "ed"
      ],
      [
        "Ġr",
        "ope"
      ],
      [
        "B",
        "ob"
      ],
      [
        "Ġtast",
        "y"
      ],
      [
        "Ġstor",
        "m"
      ],
      [
        "Ġs",
        "u"
      ],
      [
        "Ġsp",
        "id"
      ],
      [
        "itt",
        "en"
      ],
      [
        "Ġc",
        "e"
      ],
      [
        "ĠT",
        "weet"
      ],
      [
        "nd",
        "p"
      ],
      [
        "Ġpl",
        "ane"
      ],
      [
        "Ġz",
        "oom"
      ],
      [
        "Ġintere",
        "sting"
      ],
      [
        "am",
        "ed"
      ],
      [
        "Ġ",
        "ent"
      ],
      [
        "Ġcle",
        "ver"
      ],
      [
        "Ġcloud",
        "s"
      ],
      [
        "Ġsh",
        "ining"
      ],
      [
        "Ġw",
        "ide"
      ],
      [
        "Ġz",
        "oo"
      ],
      [
        "Ġp",
        "ar"
      ],
      [
        "e",
        "b"
      ],
      [
        "Ġre",
        "s"
      ],
      [
        "Ġresp",
        "ect"
      ],
      [
        "Ġscream",
        "ed"
      ],
      [
        "o",
        "ve"
      ],
      [
        "Ġmu",
        "d"
      ],
      [
        "Ġc",
        "ard"
      ],
      [
        "a",
        "ur"
      ],
      [
        "a",
        "le"
      ],
      [
        "e",
        "en"
      ],
      [
        "Ġm",
        "atter"
      ],
      [
        "Ġp",
        "ill"
      ],
      [
        "ow",
        "ed"
      ],
      [
        "Ġpre",
        "s"
      ],
      [
        "ĠS",
        "omet"
      ],
      [
        "Ġad",
        "m"
      ],
      [
        "Ġor",
        "gan"
      ],
      [
        "on",
        "t"
      ],
      [
        "Ġgo",
        "es"
      ],
      [
        "Ġfe",
        "ather"
      ],
      [
        "Ġb",
        "ark"
      ],
      [
        "Ġsn",
        "ake"
      ],
      [
        "Ġh",
        "on"
      ],
      [
        "Ġpu",
        "zz"
      ],
      [
        "ep",
        "end"
      ],
      [
        "ĠE",
        "ll"
      ],
      [
        "oo",
        "se"
      ],
      [
        "Ġpr",
        "ot"
      ],
      [
        "Ġfr",
        "ont"
      ],
      [
        "Ġp",
        "ract"
      ],
      [
        "Ġa",
        "p"
      ],
      [
        "Ġse",
        "at"
      ],
      [
        "ĠW",
        "ith"
      ],
      [
        "Ġansw",
        "er"
      ],
      [
        "Ġtri",
        "p"
      ],
      [
        "Ġas",
        "leep"
      ],
      [
        "e",
        "x"
      ],
      [
        "Ġe",
        "ag"
      ],
      [
        "L",
        "ucy"
      ],
      [
        "Ġs",
        "ur"
      ],
      [
        "Ġtri",
        "es"
      ],
      [
        "Ġprot",
        "ect"
      ],
      [
        "Ġqu",
        "est"
      ],
      [
        "C",
        "ome"
      ],
      [
        "Ġsa",
        "f"
      ],
      [
        "S",
        "t"
      ],
      [
        "Ġte",
        "ach"
      ],
      [
        "Ġneighb",
        "or"
      ],
      [
        "Ġte",
        "eth"
      ],
      [
        "Ġdan",
        "ced"
      ],
      [
        "Åĵ",
        "I"
      ],
      [
        "Ġhor",
        "se"
      ],
      [
        "Ġforg",
        "ive"
      ],
      [
        "Ġlove",
        "ly"
      ],
      [
        "Ġp",
        "ath"
      ],
      [
        "Ġsh",
        "r"
      ],
      [
        "ĠM",
        "ittens"
      ],
      [
        "Ġgent",
        "ly"
      ],
      [
        "Ġgi",
        "ant"
      ],
      [
        "ndp",
        "a"
      ],
      [
        "Ġsl",
        "id"
      ],
      [
        "Ġapp",
        "eared"
      ],
      [
        "Ġv",
        "ill"
      ],
      [
        "Ġpres",
        "ent"
      ],
      [
        "er",
        "ly"
      ],
      [
        "Ġspot",
        "ted"
      ],
      [
        "Ġwh",
        "ich"
      ],
      [
        "Ġwe",
        "aring"
      ],
      [
        "J",
        "ust"
      ],
      [
        "ĠG",
        "o"
      ],
      [
        "Ġplac",
        "es"
      ],
      [
        "Ġph",
        "one"
      ],
      [
        "is",
        "a"
      ],
      [
        "Ġdir",
        "t"
      ],
      [
        "ĠH",
        "ow"
      ],
      [
        "Ġv",
        "al"
      ],
      [
        "Ġche",
        "er"
      ],
      [
        "Ġw",
        "ild"
      ],
      [
        "Ġmin",
        "ut"
      ],
      [
        "Ġc",
        "alm"
      ],
      [
        "Ġli",
        "ve"
      ],
      [
        "Ġwho",
        "le"
      ],
      [
        "Ġmy",
        "ster"
      ],
      [
        "Ġru",
        "de"
      ],
      [
        "ch",
        "ing"
      ],
      [
        "Ġm",
        "ind"
      ],
      [
        "ul",
        "ar"
      ],
      [
        "Ġpretend",
        "ed"
      ],
      [
        "itt",
        "y"
      ],
      [
        "Ġwor",
        "m"
      ],
      [
        "Ġas",
        "h"
      ],
      [
        "Ġd",
        "i"
      ],
      [
        "l",
        "a"
      ],
      [
        "Ġroll",
        "ed"
      ],
      [
        "on",
        "es"
      ],
      [
        "Ġfa",
        "ces"
      ],
      [
        "Ġth",
        "in"
      ],
      [
        "Ġimp",
        "ress"
      ],
      [
        "Ġp",
        "ass"
      ],
      [
        "J",
        "im"
      ],
      [
        "Ġmach",
        "ine"
      ],
      [
        "ĠJim",
        "my"
      ],
      [
        "er",
        "t"
      ],
      [
        "Ġcon",
        "fused"
      ],
      [
        "iz",
        "z"
      ],
      [
        "M",
        "olly"
      ],
      [
        "Ġm",
        "ed"
      ],
      [
        "Ġtast",
        "ed"
      ],
      [
        "ss",
        "ed"
      ],
      [
        "Ġspl",
        "as"
      ],
      [
        "Ġt",
        "un"
      ],
      [
        "Ġp",
        "our"
      ],
      [
        "Ġcou",
        "ch"
      ],
      [
        "Ġsa",
        "ck"
      ],
      [
        "Ġdri",
        "ve"
      ],
      [
        "Ġb",
        "an"
      ],
      [
        "Ġs",
        "er"
      ],
      [
        "Ġco",
        "in"
      ],
      [
        "ce",
        "an"
      ],
      [
        "Ġo",
        "cean"
      ],
      [
        "n",
        "ic"
      ],
      [
        "Ġcho",
        "col"
      ],
      [
        "Ġl",
        "ad"
      ],
      [
        "Ġpic",
        "nic"
      ],
      [
        "Ġcorn",
        "er"
      ],
      [
        "E",
        "very"
      ],
      [
        "un",
        "k"
      ],
      [
        "Ġsp",
        "ent"
      ],
      [
        "Ġp",
        "an"
      ],
      [
        "Ġfe",
        "et"
      ],
      [
        "Ġsu",
        "pp"
      ],
      [
        "I",
        "n"
      ],
      [
        "Ġr",
        "ing"
      ],
      [
        "Ġwa",
        "ve"
      ],
      [
        "Ġbug",
        "s"
      ],
      [
        "at",
        "or"
      ],
      [
        "Ġcook",
        "ie"
      ],
      [
        "Ġspid",
        "er"
      ],
      [
        "Ġo",
        "ven"
      ],
      [
        "Ġsa",
        "l"
      ],
      [
        "M",
        "um"
      ],
      [
        "Ġtom",
        "orrow"
      ],
      [
        "Ġpus",
        "h"
      ],
      [
        "um",
        "ber"
      ],
      [
        "Ġfur",
        "ry"
      ],
      [
        "Ġbuild",
        "ing"
      ],
      [
        "Ġem",
        "b"
      ],
      [
        "Ġ",
        "ign"
      ],
      [
        "h",
        "ile"
      ],
      [
        "Ġsmo",
        "oth"
      ],
      [
        "Ġwr",
        "ite"
      ],
      [
        "Ġl",
        "ay"
      ],
      [
        "Ġneck",
        "l"
      ],
      [
        "Ġhid",
        "ing"
      ],
      [
        "Ġw",
        "ip"
      ],
      [
        "Ġkne",
        "e"
      ],
      [
        "at",
        "o"
      ],
      [
        "Ġs",
        "el"
      ],
      [
        "Ġfo",
        "ld"
      ],
      [
        "al",
        "s"
      ],
      [
        "Ġcan",
        "n"
      ],
      [
        "Ġbu",
        "bble"
      ],
      [
        "Ġch",
        "ick"
      ],
      [
        "Ġla",
        "st"
      ],
      [
        "ĠEm",
        "ily"
      ],
      [
        "Ġlad",
        "der"
      ],
      [
        "Ġfight",
        "ing"
      ],
      [
        "Ġro",
        "b"
      ],
      [
        "Ġp",
        "ool"
      ],
      [
        "ĠC",
        "h"
      ],
      [
        "Ġcann",
        "ot"
      ],
      [
        "Ġhelp",
        "ful"
      ],
      [
        "Ġre",
        "c"
      ],
      [
        "Ġchocol",
        "ate"
      ],
      [
        "Ġt",
        "id"
      ],
      [
        "Ġrem",
        "ind"
      ],
      [
        "ar",
        "ge"
      ],
      [
        "Ġfin",
        "ish"
      ],
      [
        "Ġtal",
        "king"
      ],
      [
        "Ġb",
        "lew"
      ],
      [
        "Ġlea",
        "f"
      ],
      [
        "ĠSomet",
        "imes"
      ],
      [
        "Ġdel",
        "ight"
      ],
      [
        "Ġc",
        "art"
      ],
      [
        "Ġfo",
        "ot"
      ],
      [
        "Ġm",
        "ountain"
      ],
      [
        "ar",
        "ra"
      ],
      [
        "Ġpa",
        "w"
      ],
      [
        "Ġm",
        "aybe"
      ],
      [
        "Ġban",
        "an"
      ],
      [
        "ig",
        "hed"
      ],
      [
        "Ġpudd",
        "le"
      ],
      [
        "Ġch",
        "ased"
      ],
      [
        "Ġst",
        "ret"
      ],
      [
        "Ġemb",
        "arra"
      ],
      [
        "Ġsong",
        "s"
      ],
      [
        "Ġwait",
        "ing"
      ],
      [
        "Ġsel",
        "fish"
      ],
      [
        "Ġw",
        "ore"
      ],
      [
        "if",
        "e"
      ],
      [
        "m",
        "o"
      ],
      [
        "Ġbe",
        "ll"
      ],
      [
        "Ġsp",
        "read"
      ],
      [
        "ĠL",
        "e"
      ],
      [
        "ĠJen",
        "ny"
      ],
      [
        "le",
        "x"
      ],
      [
        "Ġsh",
        "y"
      ],
      [
        "Ġre",
        "p"
      ],
      [
        "Ġtoo",
        "l"
      ],
      [
        "Ġwas",
        "h"
      ],
      [
        "Ġe",
        "ventually"
      ],
      [
        "S",
        "oon"
      ],
      [
        "ĠP",
        "lease"
      ],
      [
        "Ġfix",
        "ed"
      ],
      [
        "Ġstr",
        "ing"
      ],
      [
        "Ġbar",
        "ked"
      ],
      [
        "Ġrob",
        "ot"
      ],
      [
        "Ġso",
        "l"
      ],
      [
        "Ġcl",
        "oth"
      ],
      [
        "ĠJ",
        "ust"
      ],
      [
        "Ġtast",
        "e"
      ],
      [
        "Ġc",
        "ross"
      ],
      [
        "Ġn",
        "et"
      ],
      [
        "Ġb",
        "at"
      ],
      [
        "Ġneckl",
        "ace"
      ],
      [
        "ump",
        "y"
      ],
      [
        "Ġa",
        "nt"
      ],
      [
        "M",
        "y"
      ],
      [
        "Ġc",
        "oo"
      ],
      [
        "Ġspr",
        "ay"
      ],
      [
        "Ġhe",
        "ars"
      ],
      [
        "Ġsc",
        "ar"
      ],
      [
        "ĠS",
        "t"
      ],
      [
        "Ġl",
        "arge"
      ],
      [
        "Ġwhen",
        "ever"
      ],
      [
        "Ġkn",
        "ocked"
      ],
      [
        "ul",
        "t"
      ],
      [
        "Ġst",
        "one"
      ],
      [
        "Ġm",
        "issed"
      ],
      [
        "Ġtid",
        "y"
      ],
      [
        "Ġpeace",
        "ful"
      ],
      [
        "Ġst",
        "ra"
      ],
      [
        "op",
        "h"
      ],
      [
        "Ġshe",
        "lf"
      ],
      [
        "Ġst",
        "ep"
      ],
      [
        "Ġcreat",
        "ive"
      ],
      [
        "P",
        "lease"
      ],
      [
        "or",
        "ry"
      ],
      [
        "Ġpl",
        "ate"
      ],
      [
        "bo",
        "x"
      ],
      [
        "Ġwhist",
        "le"
      ],
      [
        "Ġst",
        "ir"
      ],
      [
        "Ġh",
        "um"
      ],
      [
        "ur",
        "se"
      ],
      [
        "air",
        "s"
      ],
      [
        "ĠThe",
        "ir"
      ],
      [
        "Ġtreat",
        "s"
      ],
      [
        "le",
        "br"
      ],
      [
        "Ġtell",
        "s"
      ],
      [
        "D",
        "ad"
      ],
      [
        "ig",
        "er"
      ],
      [
        "Ġsp",
        "e"
      ],
      [
        "Ġg",
        "en"
      ],
      [
        "Ġce",
        "lebr"
      ],
      [
        "Ġdec",
        "or"
      ],
      [
        "Ġstick",
        "s"
      ],
      [
        "Ġvill",
        "age"
      ],
      [
        "o",
        "ld"
      ],
      [
        "ung",
        "le"
      ],
      [
        "ĠS",
        "ome"
      ],
      [
        "ĠEvery",
        "where"
      ],
      [
        "Ġtr",
        "ust"
      ],
      [
        "Ġte",
        "a"
      ],
      [
        "Ġcra",
        "b"
      ],
      [
        "Ġj",
        "ungle"
      ],
      [
        "ell",
        "y"
      ],
      [
        "Ġembarra",
        "ssed"
      ],
      [
        "Ġwh",
        "is"
      ],
      [
        "Ġsh",
        "irt"
      ],
      [
        "N",
        "ow"
      ],
      [
        "Ġcarrot",
        "s"
      ],
      [
        "get",
        "able"
      ],
      [
        "Ġsh",
        "aring"
      ],
      [
        "h",
        "nn"
      ],
      [
        "Ġcol",
        "our"
      ],
      [
        "Ġve",
        "getable"
      ],
      [
        "ĠT",
        "V"
      ],
      [
        "Ġspl",
        "ash"
      ],
      [
        "Ġhe",
        "l"
      ],
      [
        "ĠJ",
        "ake"
      ],
      [
        "Ġn",
        "ut"
      ],
      [
        "Ġem",
        "p"
      ],
      [
        "ar",
        "m"
      ],
      [
        "Ġfor",
        "ward"
      ],
      [
        "Ġle",
        "gs"
      ],
      [
        "Ġno",
        "ds"
      ],
      [
        "Ġemp",
        "ty"
      ],
      [
        "d",
        "ge"
      ],
      [
        "Ġjump",
        "ing"
      ],
      [
        "Ġ",
        "'"
      ],
      [
        "ir",
        "d"
      ],
      [
        "Ġmo",
        "on"
      ],
      [
        "Ġrock",
        "et"
      ],
      [
        "Ġpill",
        "ow"
      ],
      [
        "Ġash",
        "amed"
      ],
      [
        "Ġland",
        "ed"
      ],
      [
        "in",
        "ted"
      ],
      [
        "an",
        "o"
      ],
      [
        "Ġsp",
        "icy"
      ],
      [
        "Ġp",
        "le"
      ],
      [
        "Ġgr",
        "ay"
      ],
      [
        "mo",
        "st"
      ],
      [
        "Ġg",
        "un"
      ],
      [
        "hnn",
        "y"
      ],
      [
        "Ġsa",
        "ve"
      ],
      [
        "Ġd",
        "eter"
      ],
      [
        "M",
        "ama"
      ],
      [
        "Ġpol",
        "ice"
      ],
      [
        "l",
        "ice"
      ],
      [
        "Ġb",
        "al"
      ],
      [
        "er",
        "p"
      ],
      [
        "ĠD",
        "on"
      ],
      [
        "ĠW",
        "hy"
      ],
      [
        "Ġdeter",
        "m"
      ],
      [
        "y",
        "ing"
      ],
      [
        "Ġgre",
        "w"
      ],
      [
        "B",
        "e"
      ],
      [
        "Ġal",
        "most"
      ],
      [
        "Ġtight",
        "ly"
      ],
      [
        "ĠA",
        "nn"
      ],
      [
        "Ġthe",
        "se"
      ],
      [
        "Ġs",
        "our"
      ],
      [
        "Ġme",
        "ant"
      ],
      [
        "Ġb",
        "er"
      ],
      [
        "Ġshe",
        "ep"
      ],
      [
        "Ġwhis",
        "p"
      ],
      [
        "a",
        "king"
      ],
      [
        "Ġunderst",
        "ood"
      ],
      [
        "St",
        "op"
      ],
      [
        "Ġje",
        "w"
      ],
      [
        "Ġhon",
        "est"
      ],
      [
        "Ġgen",
        "er"
      ],
      [
        "Ġdisapp",
        "o"
      ],
      [
        "Ġb",
        "ored"
      ],
      [
        "g",
        "round"
      ],
      [
        "i",
        "an"
      ],
      [
        "Ġyell",
        "ed"
      ],
      [
        "Ġg",
        "as"
      ],
      [
        "Ġsee",
        "k"
      ],
      [
        "Ġst",
        "ood"
      ],
      [
        "n",
        "ed"
      ],
      [
        "it",
        "al"
      ],
      [
        "Ġse",
        "ed"
      ],
      [
        "Ġcar",
        "ried"
      ],
      [
        "Ġ",
        "On"
      ],
      [
        "ĠL",
        "isa"
      ],
      [
        "Ġv",
        "an"
      ],
      [
        "Ġsnack",
        "s"
      ],
      [
        "or",
        "k"
      ],
      [
        "d",
        "en"
      ],
      [
        "Ġbre",
        "ath"
      ],
      [
        "d",
        "le"
      ],
      [
        "Ġho",
        "sp"
      ],
      [
        "Ġme",
        "adow"
      ],
      [
        "Ġle",
        "m"
      ],
      [
        "Ġpuzz",
        "le"
      ],
      [
        "Ġhosp",
        "ital"
      ],
      [
        "Ġd",
        "rew"
      ],
      [
        "Ġp",
        "izz"
      ],
      [
        "T",
        "o"
      ],
      [
        "Ġl",
        "ine"
      ],
      [
        "Sara",
        "h"
      ],
      [
        "k",
        "in"
      ],
      [
        "Ġk",
        "itten"
      ],
      [
        "ĠT",
        "eddy"
      ],
      [
        "Ġsh",
        "ore"
      ],
      [
[...]
